{
  "version": "1.0",
  "truncation": null,
  "padding": null,
  "added_tokens": [
    {
      "id": 0,
      "content": "<pad>",
      "single_word": false,
      "lstrip": false,
      "rstrip": false,
      "normalized": false,
      "special": true
    },
    {
      "id": 1,
      "content": "<unk>",
      "single_word": false,
      "lstrip": false,
      "rstrip": false,
      "normalized": false,
      "special": true
    },
    {
      "id": 2,
      "content": "<bos>",
      "single_word": false,
      "lstrip": false,
      "rstrip": false,
      "normalized": false,
      "special": true
    },
    {
      "id": 3,
      "content": "<eos>",
      "single_word": false,
      "lstrip": false,
      "rstrip": false,
      "normalized": false,
      "special": true
    }
  ],
  "normalizer": null,
  "pre_tokenizer": {
    "type": "ByteLevel",
    "add_prefix_space": true,
    "trim_offsets": true,
    "use_regex": true
  },
  "post_processor": null,
  "decoder": null,
  "model": {
    "type": "BPE",
    "dropout": null,
    "unk_token": "<unk>",
    "continuing_subword_prefix": null,
    "end_of_word_suffix": null,
    "fuse_unk": false,
    "byte_fallback": false,
    "ignore_merges": false,
    "vocab": {
      "<pad>": 0,
      "<unk>": 1,
      "<bos>": 2,
      "<eos>": 3,
      "!": 4,
      "\"": 5,
      "#": 6,
      "$": 7,
      "%": 8,
      "&": 9,
      "'": 10,
      "(": 11,
      ")": 12,
      "*": 13,
      "+": 14,
      ",": 15,
      "-": 16,
      ".": 17,
      "/": 18,
      "0": 19,
      "1": 20,
      "2": 21,
      "3": 22,
      "4": 23,
      "5": 24,
      "6": 25,
      "7": 26,
      "8": 27,
      "9": 28,
      ":": 29,
      ";": 30,
      "<": 31,
      "=": 32,
      ">": 33,
      "?": 34,
      "@": 35,
      "A": 36,
      "B": 37,
      "C": 38,
      "D": 39,
      "E": 40,
      "F": 41,
      "G": 42,
      "H": 43,
      "I": 44,
      "J": 45,
      "K": 46,
      "L": 47,
      "M": 48,
      "N": 49,
      "O": 50,
      "P": 51,
      "Q": 52,
      "R": 53,
      "S": 54,
      "T": 55,
      "U": 56,
      "V": 57,
      "W": 58,
      "X": 59,
      "Y": 60,
      "Z": 61,
      "[": 62,
      "\\": 63,
      "]": 64,
      "^": 65,
      "_": 66,
      "`": 67,
      "a": 68,
      "b": 69,
      "c": 70,
      "d": 71,
      "e": 72,
      "f": 73,
      "g": 74,
      "h": 75,
      "i": 76,
      "j": 77,
      "k": 78,
      "l": 79,
      "m": 80,
      "n": 81,
      "o": 82,
      "p": 83,
      "q": 84,
      "r": 85,
      "s": 86,
      "t": 87,
      "u": 88,
      "v": 89,
      "w": 90,
      "x": 91,
      "y": 92,
      "z": 93,
      "{": 94,
      "|": 95,
      "}": 96,
      "~": 97,
      "¡": 98,
      "¢": 99,
      "£": 100,
      "¤": 101,
      "¥": 102,
      "¦": 103,
      "§": 104,
      "¨": 105,
      "©": 106,
      "ª": 107,
      "«": 108,
      "¬": 109,
      "®": 110,
      "¯": 111,
      "°": 112,
      "±": 113,
      "²": 114,
      "³": 115,
      "´": 116,
      "µ": 117,
      "¶": 118,
      "·": 119,
      "¸": 120,
      "¹": 121,
      "º": 122,
      "»": 123,
      "¼": 124,
      "½": 125,
      "¾": 126,
      "¿": 127,
      "Â": 128,
      "Ã": 129,
      "Ä": 130,
      "Æ": 131,
      "Ç": 132,
      "Î": 133,
      "Ï": 134,
      "Ð": 135,
      "Ñ": 136,
      "Ø": 137,
      "Ù": 138,
      "à": 139,
      "á": 140,
      "â": 141,
      "ã": 142,
      "ä": 143,
      "å": 144,
      "æ": 145,
      "ç": 146,
      "è": 147,
      "é": 148,
      "ï": 149,
      "ð": 150,
      "ĉ": 151,
      "Ċ": 152,
      "č": 153,
      "Ġ": 154,
      "Ģ": 155,
      "ģ": 156,
      "Ĥ": 157,
      "ĥ": 158,
      "Ħ": 159,
      "ħ": 160,
      "Ĩ": 161,
      "ĩ": 162,
      "Ī": 163,
      "ī": 164,
      "Ĭ": 165,
      "ĭ": 166,
      "Į": 167,
      "į": 168,
      "İ": 169,
      "ı": 170,
      "Ĳ": 171,
      "ĳ": 172,
      "Ĵ": 173,
      "ĵ": 174,
      "Ķ": 175,
      "ķ": 176,
      "ĸ": 177,
      "Ĺ": 178,
      "ĺ": 179,
      "Ļ": 180,
      "ļ": 181,
      "Ľ": 182,
      "ľ": 183,
      "Ŀ": 184,
      "ŀ": 185,
      "Ł": 186,
      "ł": 187,
      "Ń": 188,
      "ĠĠ": 189,
      "ĠĠĠĠ": 190,
      "ĠĠĠ": 191,
      "ĊĠĠĠĠ": 192,
      "Ġt": 193,
      "in": 194,
      "re": 195,
      "se": 196,
      "ĊĠĠĠĠĠĠĠ": 197,
      "on": 198,
      "at": 199,
      "er": 200,
      "or": 201,
      "Ġa": 202,
      "ĊĠĠĠĠĠĠĠĠ": 203,
      "he": 204,
      "st": 205,
      "ĊĠĠĠ": 206,
      "en": 207,
      "Ġi": 208,
      "ar": 209,
      "al": 210,
      "Ġf": 211,
      "de": 212,
      "Ġc": 213,
      "me": 214,
      "Ġthe": 215,
      "le": 216,
      "ion": 217,
      "Ġ=": 218,
      "Ġp": 219,
      "ĊĠĠĠĠĠĠĠĠĠĠĠ": 220,
      "\"\"": 221,
      "ĠĠĠĠĠĠĠĠ": 222,
      "--": 223,
      "Ġo": 224,
      "Ġre": 225,
      "ur": 226,
      "ct": 227,
      "Ġin": 228,
      "an": 229,
      "it": 230,
      "ce": 231,
      "Ġn": 232,
      "sel": 233,
      "self": 234,
      "Ġs": 235,
      "ro": 236,
      "ing": 237,
      "et": 238,
      "Ġb": 239,
      "ame": 240,
      "Ġw": 241,
      "ue": 242,
      "pe": 243,
      "Ġd": 244,
      "Ġe": 245,
      "urn": 246,
      "Ġto": 247,
      "ent": 248,
      "Ġ:": 249,
      "lo": 250,
      "ut": 251,
      "ed": 252,
      "Ġif": 253,
      "li": 254,
      "ss": 255,
      "un": 256,
      "Ġde": 257,
      "):": 258,
      "Ġof": 259,
      "Ġself": 260,
      "\"\"\"": 261,
      "ĊĊĠĠĠĠĠĠĠ": 262,
      "Ġm": 263,
      "Ġ'": 264,
      "Ġan": 265,
      "es": 266,
      "ra": 267,
      "fi": 268,
      "turn": 269,
      "ot": 270,
      "Ġfor": 271,
      "ĠĠĠĠĠĠĠ": 272,
      "Ġis": 273,
      "am": 274,
      "Ġ\"\"\"": 275,
      "ĊĊĠĠĠ": 276,
      "id": 277,
      "Ġst": 278,
      "----": 279,
      "ul": 280,
      "Ġv": 281,
      "co": 282,
      "ĠT": 283,
      "ad": 284,
      "pt": 285,
      "ate": 286,
      "Ġreturn": 287,
      "is": 288,
      "Ġ(": 289,
      "ag": 290,
      "ri": 291,
      "Ġdef": 292,
      "ype": 293,
      "ĊĠĠĠĠĠĠĠĠĠĠĠĠĠĠĠ": 294,
      "ĊĠĠĠĠĠĠĠĠĠĠĠĠĠĠĠĠ": 295,
      "il": 296,
      "ter": 297,
      "ata": 298,
      "Ġ#": 299,
      "um": 300,
      "alue": 301,
      "one": 302,
      "ch": 303,
      "Ġg": 304,
      "par": 305,
      "ck": 306,
      "ation": 307,
      "Ġse": 308,
      "la": 309,
      "Ġth": 310,
      "Ġco": 311,
      "th": 312,
      "Ġand": 313,
      "Ġcon": 314,
      "ect": 315,
      "as": 316,
      "ke": 317,
      "._": 318,
      "ex": 319,
      "name": 320,
      "ĠA": 321,
      "ĠR": 322,
      "up": 323,
      "()": 324,
      "di": 325,
      "None": 326,
      "Ġnot": 327,
      "mp": 328,
      "ath": 329,
      "Ġbe": 330,
      "el": 331,
      "type": 332,
      "ult": 333,
      "ol": 334,
      "Ġex": 335,
      "Ġfi": 336,
      "param": 337,
      "Ġor": 338,
      "age": 339,
      "ver": 340,
      "bj": 341,
      "Ġ\"": 342,
      "get": 343,
      "ction": 344,
      "ĠI": 345,
      "Ġh": 346,
      "ab": 347,
      "ith": 348,
      "ror": 349,
      "ption": 350,
      "ser": 351,
      "list": 352,
      "Ġu": 353,
      "ve": 354,
      "ap": 355,
      "Ġl": 356,
      "Ġstr": 357,
      "int": 358,
      "ĠP": 359,
      "Ġ`": 360,
      "Ġdi": 361,
      "key": 362,
      "gs": 363,
      "ime": 364,
      "Ġme": 365,
      "',": 366,
      "ĠS": 367,
      "end": 368,
      "ly": 369,
      "orm": 370,
      "rom": 371,
      "ode": 372,
      "))": 373,
      "Ġvalue": 374,
      "ĠC": 375,
      "con": 376,
      "em": 377,
      "nt": 378,
      "and": 379,
      "ext": 380,
      "ig": 381,
      "Ġres": 382,
      "ĠNone": 383,
      "ĠThe": 384,
      "od": 385,
      "qu": 386,
      "to": 387,
      "ort": 388,
      "ĊĠĠĠĠĠ": 389,
      "('": 390,
      "able": 391,
      "Ġas": 392,
      "Ġwith": 393,
      "str": 394,
      "ance": 395,
      "Ġ[": 396,
      "vi": 397,
      "eturn": 398,
      "bject": 399,
      "Ġlo": 400,
      "iz": 401,
      "Ġfile": 402,
      "ise": 403,
      "-+": 404,
      "Ġpar": 405,
      "Ġpro": 406,
      "Ġal": 407,
      "Ġ1": 408,
      "Ġdata": 409,
      "res": 410,
      "Ġname": 411,
      "ment": 412,
      "Ġar": 413,
      "ci": 414,
      "-+-+": 415,
      "Ġ*": 416,
      "']": 417,
      "Ġfrom": 418,
      "form": 419,
      "ers": 420,
      "set": 421,
      "ub": 422,
      "path": 423,
      "ĠReturn": 424,
      "Ġit": 425,
      "ĊĠĠĠĠĠĠĠĠĠĠĠĠĠĠĠĠĠĠĠ": 426,
      "stance": 427,
      "['": 428,
      "')": 429,
      "que": 430,
      "po": 431,
      "Er": 432,
      "Error": 433,
      "ord": 434,
      "Ġ{": 435,
      "':": 436,
      "Ġ_": 437,
      "ĠF": 438,
      "Ġlist": 439,
      "ry": 440,
      "Ġcont": 441,
      "Ġr": 442,
      "per": 443,
      "ist": 444,
      "data": 445,
      "ase": 446,
      "Ġthat": 447,
      "red": 448,
      "Ġ0": 449,
      "Ġ+": 450,
      "ic": 451,
      "ine": 452,
      "Ġ-": 453,
      "ĠĠĠĠĠĠĠĠĠĠĠĠĠĠĠĠ": 454,
      "che": 455,
      "Ġon": 456,
      "ĠD": 457,
      "iv": 458,
      "put": 459,
      "all": 460,
      "ew": 461,
      "ack": 462,
      "ma": 463,
      "unt": 464,
      "rue": 465,
      "ray": 466,
      "att": 467,
      "Ġthis": 468,
      "ure": 469,
      "ameter": 470,
      "Ġel": 471,
      "Ġ----": 472,
      "ang": 473,
      "us": 474,
      "Ġelse": 475,
      "ĠReturns": 476,
      "args": 477,
      ">>": 478,
      "sed": 479,
      "raise": 480,
      "Ġobject": 481,
      "Ġpo": 482,
      "ault": 483,
      "lass": 484,
      "(\"": 485,
      "file": 486,
      "fo": 487,
      "ill": 488,
      "value": 489,
      "code": 490,
      "Ġby": 491,
      "Ġkey": 492,
      "Ġare": 493,
      "rent": 494,
      "ow": 495,
      "ces": 496,
      "quest": 497,
      "Ġ==": 498,
      "ize": 499,
      "Ġ%": 500,
      "our": 501,
      "fig": 502,
      "app": 503,
      "und": 504,
      "alse": 505,
      "amp": 506,
      "out": 507,
      "ated": 508,
      "ĠIf": 509,
      "cess": 510,
      "Ġma": 511,
      "py": 512,
      "ĠE": 513,
      "eld": 514,
      "pro": 515,
      "pre": 516,
      "art": 517,
      "Ġstring": 518,
      "ran": 519,
      "im": 520,
      "Ġset": 521,
      "ĠN": 522,
      "te": 523,
      "ff": 524,
      "pa": 525,
      "ork": 526,
      "Ġraise": 527,
      "peci": 528,
      "ber": 529,
      ":`": 530,
      "ary": 531,
      "Ġwill": 532,
      "sc": 533,
      "hi": 534,
      "``": 535,
      "ameters": 536,
      "dex": 537,
      "vent": 538,
      "ind": 539,
      "return": 540,
      "..": 541,
      "ain": 542,
      "Ġun": 543,
      "ho": 544,
      "low": 545,
      "dd": 546,
      "),": 547,
      "format": 548,
      "Ġy": 549,
      "Ġtype": 550,
      "ĠO": 551,
      "\",": 552,
      "ht": 553,
      "ust": 554,
      "Ġ``": 555,
      "ĠM": 556,
      "Ġ2": 557,
      "alid": 558,
      "pon": 559,
      "rit": 560,
      "unction": 561,
      "Ġtime": 562,
      "thod": 563,
      "Ġpath": 564,
      "iven": 565,
      "Ġj": 566,
      "ity": 567,
      "Ġget": 568,
      "Ġpa": 569,
      "ĠG": 570,
      "ition": 571,
      "kw": 572,
      "Ġch": 573,
      "error": 574,
      "ute": 575,
      "Ġlen": 576,
      "ive": 577,
      "ator": 578,
      "rib": 579,
      "mm": 580,
      "Ġall": 581,
      "sh": 582,
      "ĠL": 583,
      "cl": 584,
      "Ġen": 585,
      "Ġout": 586,
      "Ġnum": 587,
      "ssion": 588,
      "ĠU": 589,
      "ctor": 590,
      "ument": 591,
      "Ġ--------": 592,
      "-+-+-+-+": 593,
      "ssage": 594,
      "Ġspeci": 595,
      "ĠPar": 596,
      "ded": 597,
      "ĊĠĠĠĠĠĠĠĠĠĠĠĠĠĠĠĠĠĠĠĠĠĠĠĠ": 598,
      "Ġpre": 599,
      "gg": 600,
      "len": 601,
      "Ġdo": 602,
      "Ġresult": 603,
      "ĠTh": 604,
      "ti": 605,
      "Ġgiven": 606,
      "Ġnew": 607,
      "port": 608,
      "kwargs": 609,
      "ask": 610,
      "\")": 611,
      "Ġoption": 612,
      "Ġint": 613,
      "ph": 614,
      "ĠV": 615,
      "ource": 616,
      "class": 617,
      "Ġhe": 618,
      "atch": 619,
      "ign": 620,
      "In": 621,
      "Ġwe": 622,
      "Ġro": 623,
      "],": 624,
      "rans": 625,
      "time": 626,
      "Ġexce": 627,
      "ĠTrue": 628,
      "ĠThis": 629,
      "read": 630,
      "ug": 631,
      "Ġwhi": 632,
      "vice": 633,
      "bo": 634,
      "text": 635,
      "ĊĠĠĠĠĠĠĠĠĠ": 636,
      "Ġcol": 637,
      "Ġbo": 638,
      "ample": 639,
      "om": 640,
      "Ġwhe": 641,
      "cation": 642,
      "ys": 643,
      "roup": 644,
      ").": 645,
      "ant": 646,
      "Ġfunction": 647,
      "ponse": 648,
      "ther": 649,
      "ip": 650,
      "Ġmethod": 651,
      "sion": 652,
      "Ġcomp": 653,
      "ates": 654,
      "url": 655,
      "mo": 656,
      "ĊĊĠĠĠĠĠĠĠĠĠĠĠ": 657,
      "der": 658,
      "arget": 659,
      "])": 660,
      "00": 661,
      "odel": 662,
      "Ġx": 663,
      "Ġap": 664,
      "load": 665,
      "date": 666,
      "Ġdict": 667,
      "ail": 668,
      "urrent": 669,
      "ener": 670,
      "ok": 671,
      "ĠW": 672,
      "Ġdefault": 673,
      "Ġsub": 674,
      "Ġrequest": 675,
      "ĊĠĠĠĠĠĠĠĠĠĠĠĠĠĠĠĠĠĠĠĠĠĠĠ": 676,
      "op": 677,
      "col": 678,
      "ĠAr": 679,
      "nect": 680,
      "ĠParameters": 681,
      "append": 682,
      "count": 683,
      "Ġid": 684,
      "add": 685,
      "Ġcan": 686,
      "reate": 687,
      "lab": 688,
      "ery": 689,
      "Ġ)": 690,
      "Ġspecifi": 691,
      "ild": 692,
      "loat": 693,
      ">>>": 694,
      "Ġ**": 695,
      "ange": 696,
      "ile": 697,
      "Ġatt": 698,
      "Ġarg": 699,
      "ave": 700,
      "ob": 701,
      "Ġ----------": 702,
      "ifi": 703,
      "cal": 704,
      "ir": 705,
      "Ġ>>>": 706,
      "ĠFalse": 707,
      "ren": 708,
      "ĠB": 709,
      "ĠH": 710,
      "Ġhas": 711,
      "Ġarray": 712,
      "heck": 713,
      "fe": 714,
      "instance": 715,
      "Ġtry": 716,
      "lement": 717,
      "point": 718,
      "cord": 719,
      "Ġuse": 720,
      "==": 721,
      "lock": 722,
      "uld": 723,
      "Ġform": 724,
      "Ġvalues": 725,
      "ns": 726,
      "ari": 727,
      "ĠĠĠĠĠ": 728,
      "Ġuser": 729,
      "ps": 730,
      "fa": 731,
      "Ġwhich": 732,
      "gth": 733,
      "'.": 734,
      "Ġadd": 735,
      "pl": 736,
      "Ġup": 737,
      "ule": 738,
      "work": 739,
      "ĊĠĠĠĠĠĠĠĠĠĠĠĠĠĠĠĠĠĠĠĠĠĠĠĠĠĠĠĠĠĠĠĠ": 740,
      "ken": 741,
      "Ġle": 742,
      "line": 743,
      "lient": 744,
      "Re": 745,
      "Ġfil": 746,
      "lif": 747,
      "fault": 748,
      "dict": 749,
      "Ġexcept": 750,
      "Con": 751,
      "ach": 752,
      "info": 753,
      "ĠArgs": 754,
      "Ġcontain": 755,
      "Ġqu": 756,
      "array": 757,
      "Ġnp": 758,
      "pla": 759,
      "ial": 760,
      "rint": 761,
      "Ġk": 762,
      "Ġnode": 763,
      "ge": 764,
      "ore": 765,
      "ard": 766,
      "rame": 767,
      "son": 768,
      "dir": 769,
      "Ġconfig": 770,
      "Ġ{}": 771,
      "ader": 772,
      "Ġac": 773,
      "Ġelif": 774,
      "scri": 775,
      "Ġ<": 776,
      "Ġnumber": 777,
      "ache": 778,
      "rite": 779,
      "ec": 780,
      "mmand": 781,
      "Ġinstance": 782,
      "ĠIn": 783,
      "Ġused": 784,
      "item": 785,
      "Ġne": 786,
      "Ġte": 787,
      "Ġcall": 788,
      "Ġso": 789,
      "\":": 790,
      "Ġli": 791,
      "uct": 792,
      "back": 793,
      "val": 794,
      "__": 795,
      "Ġevent": 796,
      "'s": 797,
      "Ġerror": 798,
      "Ġimp": 799,
      "ON": 800,
      "Ġser": 801,
      "ĠEx": 802,
      "lot": 803,
      "size": 804,
      "Ġcurrent": 805,
      "min": 806,
      "obj": 807,
      "Ġ3": 808,
      "Ġsh": 809,
      "ress": 810,
      "='": 811,
      "atus": 812,
      "Ċĉ": 813,
      "Ġat": 814,
      "yn": 815,
      "Ġinter": 816,
      "rtype": 817,
      "mit": 818,
      "ac": 819,
      "True": 820,
      "ses": 821,
      "ĊĠ": 822,
      "Ġline": 823,
      "St": 824,
      "Ġoutput": 825,
      "ctory": 826,
      "ution": 827,
      ".\"\"\"": 828,
      "ight": 829,
      "Ġitem": 830,
      "ape": 831,
      "string": 832,
      "Ġno": 833,
      "Ġfield": 834,
      "ĠRe": 835,
      "Ġent": 836,
      "Ġper": 837,
      "''": 838,
      "gger": 839,
      "tra": 840,
      "Ġresponse": 841,
      "fix": 842,
      "label": 843,
      "ĠĠĠĠĠĠ": 844,
      "not": 845,
      "Ġargument": 846,
      "unc": 847,
      "uple": 848,
      "so": 849,
      "Ġisinstance": 850,
      "pace": 851,
      "rid": 852,
      "False": 853,
      "num": 854,
      "Ġmessage": 855,
      "Ġfloat": 856,
      "Ġcal": 857,
      "ĠCon": 858,
      "base": 859,
      "Ġtrans": 860,
      "Ġ|": 861,
      "oin": 862,
      "[\"": 863,
      "index": 864,
      "sing": 865,
      "tt": 866,
      "():": 867,
      "nd": 868,
      "Ġ>": 869,
      "we": 870,
      "Ġspecified": 871,
      "Ġone": 872,
      "arg": 873,
      "Ġos": 874,
      "ies": 875,
      "lic": 876,
      "by": 877,
      "alueError": 878,
      "sent": 879,
      "raph": 880,
      "clu": 881,
      "Ġindex": 882,
      "ay": 883,
      "Ġoptional": 884,
      "Ġdire": 885,
      "Ġmax": 886,
      "config": 887,
      "hould": 888,
      "Ġ------": 889,
      "act": 890,
      "valid": 891,
      "own": 892,
      "pi": 893,
      "os": 894,
      "Ġ..": 895,
      "ib": 896,
      "Ġinput": 897,
      "Ġapp": 898,
      "uth": 899,
      "comp": 900,
      "qui": 901,
      "Ġuni": 902,
      "Ġsu": 903,
      "ree": 904,
      "attr": 905,
      "\"]": 906,
      "ll": 907,
      "ms": 908,
      "ep": 909,
      "ER": 910,
      "word": 911,
      "rst": 912,
      "Ġtarget": 913,
      "start": 914,
      "ings": 915,
      "Ġpoint": 916,
      "ations": 917,
      "Ġstart": 918,
      "tri": 919,
      "led": 920,
      "Ġcheck": 921,
      "ribute": 922,
      "Ġreg": 923,
      "version": 924,
      "-+-+-+-+-+-+-+-+": 925,
      "Ġclass": 926,
      "Ġonly": 927,
      "odule": 928,
      "ST": 929,
      "ctionary": 930,
      "Ġvalid": 931,
      "Ġany": 932,
      "ream": 933,
      "ception": 934,
      "Ġ[]": 935,
      "vert": 936,
      "Ġshould": 937,
      "Ġmust": 938,
      "Ġother": 939,
      "Ġbase": 940,
      "Ġinto": 941,
      "ĠValueError": 942,
      "object": 943,
      "pen": 944,
      ".__": 945,
      "cont": 946,
      "ding": 947,
      "Ġtw": 948,
      "Ġend": 949,
      "Ġim": 950,
      "Ġ-------": 951,
      "join": 952,
      "Ġexist": 953,
      "Ġhave": 954,
      "IN": 955,
      "ally": 956,
      "pec": 957,
      "max": 958,
      "Ġ/": 959,
      "thon": 960,
      "ature": 961,
      "Ġeach": 962,
      "fy": 963,
      "Ġmodel": 964,
      "tes": 965,
      "plit": 966,
      "ta": 967,
      "names": 968,
      "ence": 969,
      "Ġfa": 970,
      "ĠDe": 971,
      "scription": 972,
      "feren": 973,
      "ory": 974,
      "mb": 975,
      "sub": 976,
      "ull": 977,
      "Ġprint": 978,
      "nection": 979,
      "Ġwork": 980,
      "vel": 981,
      "group": 982,
      "Ġ'''": 983,
      "Ġpy": 984,
      "Ġwhen": 985,
      "Ġimport": 986,
      "user": 987,
      "ersion": 988,
      "Ġnames": 989,
      "option": 990,
      "Ġtemp": 991,
      "ote": 992,
      "lin": 993,
      "\".": 994,
      "ide": 995,
      "node": 996,
      "arch": 997,
      "Ġover": 998,
      "etwork": 999,
      "Ex": 1000,
      "Data": 1001,
      "mi": 1002,
      "ĠJ": 1003,
      "Ġdis": 1004,
      "values": 1005,
      "Ġrun": 1006,
      "bug": 1007,
      "Ġla": 1008,
      "ait": 1009,
      "Ġmat": 1010,
      "ound": 1011,
      "action": 1012,
      "log": 1013,
      "Ġcontext": 1014,
      "Ġread": 1015,
      "Ġbu": 1016,
      "ries": 1017,
      "do": 1018,
      "entifi": 1019,
      "ages": 1020,
      "Ġbool": 1021,
      "Ġquery": 1022,
      "Ġdictionary": 1023,
      "Ġformat": 1024,
      "default": 1025,
      "AT": 1026,
      "Ġcommand": 1027,
      "Ġ}": 1028,
      "ID": 1029,
      "ak": 1030,
      "Ġgener": 1031,
      "{}": 1032,
      "nel": 1033,
      "ved": 1034,
      "sert": 1035,
      "ning": 1036,
      "Ġcode": 1037,
      "Ġmo": 1038,
      "yst": 1039,
      "Ġtext": 1040,
      "Ġlog": 1041,
      "its": 1042,
      "returns": 1043,
      "for": 1044,
      "ject": 1045,
      "cur": 1046,
      "Ġpi": 1047,
      "ents": 1048,
      "Ġstate": 1049,
      "Ġsup": 1050,
      "Ġrecord": 1051,
      "ody": 1052,
      "ml": 1053,
      "ors": 1054,
      "tern": 1055,
      "from": 1056,
      "ds": 1057,
      "let": 1058,
      "'t": 1059,
      "Ġproper": 1060,
      "].": 1061,
      "bu": 1062,
      "ong": 1063,
      "pend": 1064,
      "Ġmatch": 1065,
      "ename": 1066,
      "place": 1067,
      "ystem": 1068,
      "Ġpass": 1069,
      "Ġcl": 1070,
      "Ġ+=": 1071,
      "map": 1072,
      "og": 1073,
      "ite": 1074,
      "umn": 1075,
      "request": 1076,
      "reg": 1077,
      "clude": 1078,
      "raw": 1079,
      "ĠGet": 1080,
      "ark": 1081,
      "Ġz": 1082,
      "Ġgroup": 1083,
      "ield": 1084,
      "Ġparam": 1085,
      "lete": 1086,
      "cre": 1087,
      "Ġfiles": 1088,
      "Ke": 1089,
      "debug": 1090,
      "Ġlogger": 1091,
      "Ġpl": 1092,
      "ou": 1093,
      "Ġcor": 1094,
      "Ġfirst": 1095,
      "Ġvari": 1096,
      "Ġversion": 1097,
      "pect": 1098,
      "Ġhand": 1099,
      "Ġass": 1100,
      "result": 1101,
      "Ġ!": 1102,
      "rest": 1103,
      "ast": 1104,
      "field": 1105,
      "PI": 1106,
      "state": 1107,
      "ax": 1108,
      "`.": 1109,
      "Ġtuple": 1110,
      "Ġlength": 1111,
      "lob": 1112,
      "Ġparser": 1113,
      "ty": 1114,
      "Par": 1115,
      "([": 1116,
      "RE": 1117,
      "ler": 1118,
      "--------": 1119,
      "ension": 1120,
      "lect": 1121,
      "cul": 1122,
      "Ġurl": 1123,
      "Ġ!=": 1124,
      "write": 1125,
      "ormal": 1126,
      "items": 1127,
      "ft": 1128,
      "Ġlin": 1129,
      "ron": 1130,
      "df": 1131,
      "ume": 1132,
      "Ġrow": 1133,
      "Ġmin": 1134,
      "adata": 1135,
      "ference": 1136,
      "**": 1137,
      "Ġkwargs": 1138,
      "Ġsource": 1139,
      "Ġusing": 1140,
      "present": 1141,
      "row": 1142,
      "etime": 1143,
      "Ġtoken": 1144,
      "Ġ\\": 1145,
      "Ġax": 1146,
      "ative": 1147,
      "alys": 1148,
      "alysis": 1149,
      "main": 1150,
      "av": 1151,
      "Ġfilename": 1152,
      "Instance": 1153,
      "Ġtask": 1154,
      "ĠAn": 1155,
      "rix": 1156,
      "ments": 1157,
      "ĊĠĠĠĠĠĠĠĠĠĠĠĠĠ": 1158,
      "Ġargs": 1159,
      "Ġ4": 1160,
      "Key": 1161,
      "Type": 1162,
      "api": 1163,
      "Ġpos": 1164,
      "itle": 1165,
      "Ġtable": 1166,
      "json": 1167,
      "mission": 1168,
      "[:": 1169,
      "func": 1170,
      "Ġindi": 1171,
      "Ġelement": 1172,
      "da": 1173,
      "Ġdefin": 1174,
      "pty": 1175,
      "ties": 1176,
      "Ġrepresent": 1177,
      "uration": 1178,
      "ual": 1179,
      "())": 1180,
      "Ġprovi": 1181,
      "Ġdoes": 1182,
      "client": 1183,
      "utes": 1184,
      "Ġreturned": 1185,
      "cket": 1186,
      "Ġunicode": 1187,
      "call": 1188,
      "atetime": 1189,
      "Ġab": 1190,
      "message": 1191,
      "Ġsign": 1192,
      "Ġ@": 1193,
      "aders": 1194,
      "Ġ...": 1195,
      "Ġjob": 1196,
      "les": 1197,
      "split": 1198,
      "Ġarguments": 1199,
      "cy": 1200,
      "Ġbut": 1201,
      "update": 1202,
      "Ġparameter": 1203,
      "====": 1204,
      "Ġsize": 1205,
      "Ġpart": 1206,
      "Ġkeys": 1207,
      "lib": 1208,
      "target": 1209,
      "md": 1210,
      "lean": 1211,
      "token": 1212,
      "Ġfound": 1213,
      "orage": 1214,
      "Ġimage": 1215,
      "keys": 1216,
      "Ġthen": 1217,
      "De": 1218,
      "Ġprocess": 1219,
      "pos": 1220,
      "ags": 1221,
      "com": 1222,
      "ized": 1223,
      "chema": 1224,
      "Ġcreate": 1225,
      "ĠRa": 1226,
      "Ġiter": 1227,
      "Get": 1228,
      "ĊĠĠĠĠĠĠĠĠĠĠĠĠĠĠĠĠĠĠĠĠĠĠĠĠĠĠĠ": 1229,
      "Ġinst": 1230,
      "01": 1231,
      "are": 1232,
      "fter": 1233,
      "cs": 1234,
      "ĠSt": 1235,
      "rap": 1236,
      "model": 1237,
      "ME": 1238,
      "Ġblock": 1239,
      "sum": 1240,
      "ync": 1241,
      "entifier": 1242,
      "ost": 1243,
      "Ġreturns": 1244,
      "move": 1245,
      "Ġcre": 1246,
      "Ġfilter": 1247,
      "ous": 1248,
      "filen": 1249,
      "idth": 1250,
      "Ġwas": 1251,
      "old": 1252,
      "Ġcount": 1253,
      "yload": 1254,
      "context": 1255,
      "Ġrange": 1256,
      "oth": 1257,
      "amples": 1258,
      "formation": 1259,
      "of": 1260,
      "Ġcache": 1261,
      "Ġrequi": 1262,
      "ateg": 1263,
      "fore": 1264,
      "ĠRaise": 1265,
      "with": 1266,
      "tadata": 1267,
      "ĠX": 1268,
      "'):": 1269,
      "//": 1270,
      "ili": 1271,
      "`,": 1272,
      "Ġentry": 1273,
      "Ġav": 1274,
      "Ġparams": 1275,
      "Ġyou": 1276,
      "inal": 1277,
      "params": 1278,
      "Ġver": 1279,
      "Ġ->": 1280,
      "Ġoptions": 1281,
      "quence": 1282,
      "stri": 1283,
      "fil": 1284,
      "Ġoper": 1285,
      "ĠID": 1286,
      "Ġbet": 1287,
      "parse": 1288,
      "Ġservice": 1289,
      "ĠSe": 1290,
      "off": 1291,
      "like": 1292,
      "Ġobjects": 1293,
      "queue": 1294,
      "OR": 1295,
      "'],": 1296,
      "imum": 1297,
      "Ġlabel": 1298,
      "Ġattribute": 1299,
      "wise": 1300,
      "ible": 1301,
      "run": 1302,
      "annel": 1303,
      "Co": 1304,
      "assed": 1305,
      "trans": 1306,
      "late": 1307,
      "Name": 1308,
      "no": 1309,
      "Ġad": 1310,
      "filename": 1311,
      "ne": 1312,
      "status": 1313,
      "Ġobj": 1314,
      "File": 1315,
      "imp": 1316,
      "itial": 1317,
      "cls": 1318,
      "Ġdirectory": 1319,
      "ins": 1320,
      "rial": 1321,
      "ĠAdd": 1322,
      "sid": 1323,
      "Ġparameters": 1324,
      "Ġsing": 1325,
      "igh": 1326,
      "ilio": 1327,
      "options": 1328,
      "Ġopen": 1329,
      "use": 1330,
      "stamp": 1331,
      "Ġresults": 1332,
      "Ġwhere": 1333,
      "Ġtra": 1334,
      "ref": 1335,
      "LE": 1336,
      "Return": 1337,
      "ical": 1338,
      "du": 1339,
      "iter": 1340,
      "event": 1341,
      "ped": 1342,
      "=\"": 1343,
      "resh": 1344,
      "pack": 1345,
      "Ġorder": 1346,
      "Ġallow": 1347,
      "Pro": 1348,
      "Ġcontent": 1349,
      "io": 1350,
      "olution": 1351,
      "]:": 1352,
      "frame": 1353,
      "ailable": 1354,
      "length": 1355,
      "(),": 1356,
      "://": 1357,
      "ĠCo": 1358,
      "has": 1359,
      "hand": 1360,
      "Ġsame": 1361,
      "Ġoff": 1362,
      "ats": 1363,
      "ating": 1364,
      "((": 1365,
      "Ġits": 1366,
      "ĠRaises": 1367,
      "Ġclient": 1368,
      "process": 1369,
      "ures": 1370,
      "dire": 1371,
      "Ġserver": 1372,
      "ched": 1373,
      "lection": 1374,
      "Ġthan": 1375,
      "Ġextra": 1376,
      "::": 1377,
      "Ġpassed": 1378,
      "Ġback": 1379,
      "Ċĉĉ": 1380,
      "Ġstatus": 1381,
      "face": 1382,
      "Ġaut": 1383,
      "ready": 1384,
      "ccess": 1385,
      "ts": 1386,
      "Ġmodule": 1387,
      "block": 1388,
      "Ġ.": 1389,
      "ld": 1390,
      "ens": 1391,
      "Ġpage": 1392,
      "ween": 1393,
      "TP": 1394,
      "Ġcolumn": 1395,
      "Ġvariable": 1396,
      "core": 1397,
      "Ġresource": 1398,
      "types": 1399,
      "cent": 1400,
      "Ġcontaining": 1401,
      "np": 1402,
      "Ġ{'": 1403,
      "ants": 1404,
      "Ġthere": 1405,
      "query": 1406,
      "tings": 1407,
      "filter": 1408,
      "ported": 1409,
      "RL": 1410,
      "anag": 1411,
      "Ġexception": 1412,
      "Ġsingle": 1413,
      "ĠSet": 1414,
      "check": 1415,
      "ght": 1416,
      "Ġprovided": 1417,
      "inter": 1418,
      "Ġtwilio": 1419,
      "flow": 1420,
      "().": 1421,
      "medi": 1422,
      "Ġpri": 1423,
      "List": 1424,
      "Ġmay": 1425,
      "Ġmult": 1426,
      "Res": 1427,
      "Ġload": 1428,
      "Ġfol": 1429,
      "Ġfl": 1430,
      ":`~": 1431,
      "Ġparent": 1432,
      "Ġsc": 1433,
      "Ġcls": 1434,
      "ĠPro": 1435,
      "Ġcase": 1436,
      "Ġdate": 1437,
      "Ġbetween": 1438,
      "AR": 1439,
      "Ġpoints": 1440,
      "Ġ5": 1441,
      "##": 1442,
      "Ġtri": 1443,
      "ency": 1444,
      "spec": 1445,
      "Ġsort": 1446,
      "Ġexec": 1447,
      "Ġcontin": 1448,
      "lay": 1449,
      "pr": 1450,
      "Ġsession": 1451,
      "float": 1452,
      "Ġdiff": 1453,
      "DE": 1454,
      "indow": 1455,
      "sign": 1456,
      "SON": 1457,
      "Ġrel": 1458,
      "Ġjson": 1459,
      "lose": 1460,
      "Ġed": 1461,
      "Ġalready": 1462,
      "Ġheader": 1463,
      "TI": 1464,
      "new": 1465,
      "Ġconnection": 1466,
      "Ġchar": 1467,
      "sg": 1468,
      "try": 1469,
      "uid": 1470,
      "cor": 1471,
      "mpty": 1472,
      "pri": 1473,
      "Ġafter": 1474,
      "Ġinformation": 1475,
      "util": 1476,
      "PE": 1477,
      "ĠType": 1478,
      "Ġpack": 1479,
      "ĠAPI": 1480,
      "Ġstream": 1481,
      "Ġvi": 1482,
      "mat": 1483,
      "ud": 1484,
      "Ġbytes": 1485,
      "Ar": 1486,
      "Ġlocal": 1487,
      "peline": 1488,
      "Ġact": 1489,
      "itions": 1490,
      "ization": 1491,
      "Ġmore": 1492,
      "Ġcur": 1493,
      "Ġyield": 1494,
      "ĠData": 1495,
      "msg": 1496,
      "Ġcontinue": 1497,
      "Ġcompon": 1498,
      "method": 1499,
      "Ġpayload": 1500,
      "iss": 1501,
      "def": 1502,
      "grid": 1503,
      "ply": 1504,
      "Ġtag": 1505,
      "umns": 1506,
      "task": 1507,
      "offset": 1508,
      "Ġdoc": 1509,
      "shape": 1510,
      "Ġmode": 1511,
      "Ġval": 1512,
      "output": 1513,
      "rc": 1514,
      "points": 1515,
      "Ġwhile": 1516,
      "ĠDefault": 1517,
      "number": 1518,
      "be": 1519,
      "Ġroot": 1520,
      "Ġext": 1521,
      "view": 1522,
      "ributes": 1523,
      "Ġ--": 1524,
      "ĠList": 1525,
      "ĊĠĠĠĠĠĠĠĠĠĠ": 1526,
      "arning": 1527,
      "response": 1528,
      "source": 1529,
      "Ġtimeout": 1530,
      "ches": 1531,
      "AL": 1532,
      "wait": 1533,
      "Ġdf": 1534,
      "ĠFor": 1535,
      "ify": 1536,
      "Ġstruct": 1537,
      "ĠPy": 1538,
      "ids": 1539,
      "ector": 1540,
      "ring": 1541,
      "Context": 1542,
      "Ġnon": 1543,
      "viron": 1544,
      "cate": 1545,
      "cache": 1546,
      "Ġbody": 1547,
      "auth": 1548,
      "ger": 1549,
      "play": 1550,
      "ential": 1551,
      "ful": 1552,
      "iled": 1553,
      "Ġlast": 1554,
      "Ġorig": 1555,
      "64": 1556,
      "raises": 1557,
      "ell": 1558,
      "Un": 1559,
      "ĠJSON": 1560,
      "coding": 1561,
      "Ġneed": 1562,
      "level": 1563,
      "andom": 1564,
      "gging": 1565,
      "ĠCreate": 1566,
      "var": 1567,
      "Ġmap": 1568,
      "Ġmatrix": 1569,
      "Ġnetwork": 1570,
      "pts": 1571,
      "Ġdepend": 1572,
      "struct": 1573,
      "ources": 1574,
      "gment": 1575,
      "Ġlimit": 1576,
      "SE": 1577,
      "Ġparse": 1578,
      "Ġupdate": 1579,
      "idx": 1580,
      "Ġthro": 1581,
      "service": 1582,
      "attern": 1583,
      "input": 1584,
      "-+-+-+-+-+-+-+-+-+-+-+-+-+-+-+-+": 1585,
      "uri": 1586,
      "Ġsecon": 1587,
      "ake": 1588,
      "Id": 1589,
      "ix": 1590,
      "prefix": 1591,
      "anager": 1592,
      "ustom": 1593,
      "TE": 1594,
      "Ġstorage": 1595,
      "entry": 1596,
      "gn": 1597,
      "pression": 1598,
      "bool": 1599,
      "Ġoffset": 1600,
      "angu": 1601,
      "Ġwhether": 1602,
      "table": 1603,
      "temp": 1604,
      "Ġtwo": 1605,
      "ome": 1606,
      "Ġchild": 1607,
      "Ġbound": 1608,
      "ks": 1609,
      "Ġavailable": 1610,
      "Ġfind": 1611,
      "ĠOption": 1612,
      "Ġinclude": 1613,
      "apping": 1614,
      "ire": 1615,
      "Ġmake": 1616,
      "fl": 1617,
      "Ġbeen": 1618,
      "Ġinfo": 1619,
      "Ġwrite": 1620,
      "etch": 1621,
      "address": 1622,
      "atic": 1623,
      "Value": 1624,
      "files": 1625,
      "ssages": 1626,
      "ffer": 1627,
      "ĠKey": 1628,
      "Ġcalled": 1629,
      "Ġaxis": 1630,
      "Ġbefore": 1631,
      "lease": 1632,
      "'])": 1633,
      "riter": 1634,
      "tx": 1635,
      "Ġob": 1636,
      "ves": 1637,
      "dis": 1638,
      "][": 1639,
      "ting": 1640,
      ")))": 1641,
      "ero": 1642,
      "Ġsequence": 1643,
      "ĠHT": 1644,
      "Ġproperties": 1645,
      "Ġcreated": 1646,
      "Frame": 1647,
      "fs": 1648,
      "title": 1649,
      "Ġitems": 1650,
      "space": 1651,
      "Ġmsg": 1652,
      "Ġcallback": 1653,
      "Ġnormal": 1654,
      "create": 1655,
      "Ġaccess": 1656,
      "Ġcoord": 1657,
      "Ġmean": 1658,
      "Ġ['": 1659,
      "Ġinte": 1660,
      "Ġhtt": 1661,
      "match": 1662,
      "Ġframe": 1663,
      "Ġsearch": 1664,
      "Ġassert": 1665,
      "Ġempty": 1666,
      "Ser": 1667,
      "amb": 1668,
      "arn": 1669,
      "Ġshape": 1670,
      "ĠUn": 1671,
      "ĠY": 1672,
      "Ġnext": 1673,
      "ĠWhe": 1674,
      "Set": 1675,
      "cope": 1676,
      "Event": 1677,
      "coded": 1678,
      "ĠURL": 1679,
      "Ġlocation": 1680,
      "Ġprefix": 1681,
      "Ġmetadata": 1682,
      "module": 1683,
      "Ġsome": 1684,
      "content": 1685,
      "ugh": 1686,
      "plot": 1687,
      "wer": 1688,
      "radi": 1689,
      "Ġ6": 1690,
      "loc": 1691,
      "Ġproject": 1692,
      "iple": 1693,
      "ither": 1694,
      "Time": 1695,
      "las": 1696,
      "record": 1697,
      "root": 1698,
      "part": 1699,
      "Ġcolor": 1700,
      "tag": 1701,
      "ĠIt": 1702,
      "Ġconfiguration": 1703,
      "Qu": 1704,
      "Ġmem": 1705,
      "10": 1706,
      "AC": 1707,
      "nown": 1708,
      "inary": 1709,
      "Ġsy": 1710,
      "Ġ('": 1711,
      "host": 1712,
      "mark": 1713,
      "parent": 1714,
      "ĊĊĠĠĠĠĠĠĠĠĠĠĠĠĠĠĠ": 1715,
      "Ġsys": 1716,
      "reak": 1717,
      "Ġcalcul": 1718,
      "umber": 1719,
      "ĊĠĠĠĠĠĠĠĠĠĠĠĠĠĠĠĠĠĠĠĠĠĠĠĠĠĠĠĠĠĠĠĠĠĠĠĠĠĠĠĠ": 1720,
      "tal": 1721,
      "rol": 1722,
      "ĠException": 1723,
      "anguage": 1724,
      "lication": 1725,
      "'))": 1726,
      "ĠCheck": 1727,
      "ered": 1728,
      "image": 1729,
      "ĠLo": 1730,
      "Ġsp": 1731,
      "ĠNot": 1732,
      "istr": 1733,
      "ner": 1734,
      "limit": 1735,
      "Ġalso": 1736,
      "Ġcomm": 1737,
      "Ġdist": 1738,
      "very": 1739,
      "Ġheaders": 1740,
      "mt": 1741,
      "andas": 1742,
      "ails": 1743,
      "current": 1744,
      "command": 1745,
      "Ġcopy": 1746,
      "mag": 1747,
      "ice": 1748,
      "Ġfull": 1749,
      "Ġop": 1750,
      "ification": 1751,
      "lines": 1752,
      "Ġlevel": 1753,
      "Ġreference": 1754,
      "pop": 1755,
      "qual": 1756,
      "ĊĊĠ": 1757,
      "Ġfollow": 1758,
      "Ġgrid": 1759,
      "NA": 1760,
      "print": 1761,
      "stream": 1762,
      "ĊĠĠĠĠĠĠ": 1763,
      "Ġconvert": 1764,
      "Ġoperation": 1765,
      "sor": 1766,
      "Ġhost": 1767,
      "Ġbased": 1768,
      "connect": 1769,
      "Ġaddress": 1770,
      "script": 1771,
      "bytes": 1772,
      "Ġplot": 1773,
      "mote": 1774,
      "she": 1775,
      "UT": 1776,
      "Ġpub": 1777,
      "Ġ8": 1778,
      "Ġsystem": 1779,
      "Ġgraph": 1780,
      "any": 1781,
      "Ġfe": 1782,
      "gra": 1783,
      "su": 1784,
      "IP": 1785,
      "ĊĠĠĠĠĠĠĠĠĠĠĠĠĠĠ": 1786,
      "ular": 1787,
      "Ġapi": 1788,
      "Ġfunc": 1789,
      "Ġnodes": 1790,
      "lobal": 1791,
      "Ġscal": 1792,
      "Ġfields": 1793,
      "Ġlines": 1794,
      "Ġlike": 1795,
      "Ġinitial": 1796,
      "Ġanalysis": 1797,
      "Ġcom": 1798,
      "body": 1799,
      "vices": 1800,
      "gen": 1801,
      "hent": 1802,
      "pp": 1803,
      "swith": 1804,
      "ĊĊĠĠĠĠĠ": 1805,
      "db": 1806,
      "copy": 1807,
      "Ġenum": 1808,
      "Ġsample": 1809,
      "Ġcontainer": 1810,
      "Ġlib": 1811,
      "hentic": 1812,
      "account": 1813,
      "fer": 1814,
      "``.": 1815,
      "Ġsend": 1816,
      "ribution": 1817,
      "ities": 1818,
      "Ġstrings": 1819,
      "ĠName": 1820,
      "olean": 1821,
      "Ġtop": 1822,
      "itional": 1823,
      "respon": 1824,
      "oc": 1825,
      "ater": 1826,
      "olume": 1827,
      "Ġotherwise": 1828,
      "erature": 1829,
      "ility": 1830,
      "ambda": 1831,
      "Ġthem": 1832,
      "Ġdet": 1833,
      "Ġdatabase": 1834,
      "actions": 1835,
      "It": 1836,
      "ctions": 1837,
      "width": 1838,
      "ĊĠĠĠĠĠĠĠĠĠĠĠĠ": 1839,
      "NT": 1840,
      "essage": 1841,
      "Ġword": 1842,
      "ca": 1843,
      "rary": 1844,
      "session": 1845,
      "OD": 1846,
      "ĠĠĠĠĠĠĠĠĠĠĠĠĠĠĠĠĠĠĠĠĠĠĠĠ": 1847,
      "Ġerrors": 1848,
      "gener": 1849,
      "right": 1850,
      "tocol": 1851,
      "Ġdevice": 1852,
      "ĠSee": 1853,
      "pth": 1854,
      "Exception": 1855,
      "header": 1856,
      "Ġidentifier": 1857,
      "Ġdiffe": 1858,
      "SI": 1859,
      "lp": 1860,
      "ML": 1861,
      "Se": 1862,
      "mension": 1863,
      "Ġtree": 1864,
      "Ġexisting": 1865,
      "Ġret": 1866,
      "ols": 1867,
      "Ġaccount": 1868,
      "err": 1869,
      "exec": 1870,
      "lable": 1871,
      "if": 1872,
      "Ġexp": 1873,
      "ister": 1874,
      "Ġwh": 1875,
      "proper": 1876,
      "Ġhash": 1877,
      "Ġport": 1878,
      "Ġremove": 1879,
      "ass": 1880,
      "python": 1881,
      "find": 1882,
      "Ġsum": 1883,
      "Ġdatetime": 1884,
      "stra": 1885,
      ")]": 1886,
      "Ġconnect": 1887,
      "network": 1888,
      "Ġsuch": 1889,
      "Ġproperty": 1890,
      "html": 1891,
      "vari": 1892,
      "comm": 1893,
      "Ġrequired": 1894,
      "cer": 1895,
      "ges": 1896,
      "Ġbreak": 1897,
      "Item": 1898,
      "rel": 1899,
      "Ġwait": 1900,
      "kip": 1901,
      "issing": 1902,
      "Ġold": 1903,
      "job": 1904,
      "ination": 1905,
      "OG": 1906,
      "est": 1907,
      "pected": 1908,
      "Ġtest": 1909,
      "Ġcorrespon": 1910,
      "yle": 1911,
      "round": 1912,
      "ategory": 1913,
      "ĠPython": 1914,
      "Ġrece": 1915,
      "unk": 1916,
      "hash": 1917,
      "ays": 1918,
      "Ġlay": 1919,
      "datetime": 1920,
      "doc": 1921,
      "Ġspec": 1922,
      "(*": 1923,
      "replace": 1924,
      "Ġtypes": 1925,
      "Ġdefined": 1926,
      "lower": 1927,
      "pol": 1928,
      "Array": 1929,
      "top": 1930,
      "ffect": 1931,
      "ĠAl": 1932,
      "Ġlogging": 1933,
      "post": 1934,
      "strip": 1935,
      "'),": 1936,
      "verse": 1937,
      "Ġtotal": 1938,
      "Ġkeyword": 1939,
      "server": 1940,
      "Ġparsed": 1941,
      "Ġexists": 1942,
      "Ġali": 1943,
      "emo": 1944,
      "Ġdescription": 1945,
      "Ġdel": 1946,
      "irs": 1947,
      "Ġsim": 1948,
      "Ġschema": 1949,
      "htt": 1950,
      "uni": 1951,
      "ics": 1952,
      "ĠTypeError": 1953,
      "ĊĠĠĠĠĠĠĠĠĠĠĠĠĠĠĠĠĠĠĠĠĠĠĠĠĠĠĠĠĠĠĠ": 1954,
      "vironment": 1955,
      "An": 1956,
      "Ġauth": 1957,
      "cept": 1958,
      "ĠNote": 1959,
      "[-": 1960,
      "the": 1961,
      "anges": 1962,
      "tain": 1963,
      "Ġposs": 1964,
      "Ġposition": 1965,
      ")):": 1966,
      "čĊĠĠĠĠĠĠĠ": 1967,
      "Ġ'/": 1968,
      "Ġund": 1969,
      "rect": 1970,
      "duct": 1971,
      "eve": 1972,
      "cies": 1973,
      "nsor": 1974,
      "Lo": 1975,
      "vis": 1976,
      "open": 1977,
      "callback": 1978,
      "Ġref": 1979,
      "Ġreplace": 1980,
      "Ġmultiple": 1981,
      "Ġdtype": 1982,
      "duce": 1983,
      "GE": 1984,
      "mode": 1985,
      "ugin": 1986,
      "local": 1987,
      "Ġunique": 1988,
      "ear": 1989,
      "ĠHTTP": 1990,
      "element": 1991,
      "ict": 1992,
      "Ġcmd": 1993,
      "seq": 1994,
      "ĠK": 1995,
      "sp": 1996,
      "ĠSer": 1997,
      "oci": 1998,
      "Ġattr": 1999,
      "Ġdocument": 2000,
      ".\")": 2001,
      "order": 2002,
      "ived": 2003,
      "fields": 2004,
      "})": 2005,
      "Ġtheir": 2006,
      "ĠWe": 2007,
      "Ġthey": 2008,
      "system": 2009,
      "vid": 2010,
      "aut": 2011,
      "uster": 2012,
      "Ġcontains": 2013,
      "Ġsuccess": 2014,
      ".')": 2015,
      "etri": 2016,
      "[:,": 2017,
      "req": 2018,
      "ĠUp": 2019,
      "tuple": 2020,
      "Ġexample": 2021,
      "Ġlook": 2022,
      "Ġdataset": 2023,
      "Ġpost": 2024,
      "bit": 2025,
      "Ġeither": 2026,
      "pecifi": 2027,
      "Parse": 2028,
      "Request": 2029,
      "Ġind": 2030,
      "lied": 2031,
      "Ġattributes": 2032,
      "ted": 2033,
      "'].": 2034,
      "Ġremo": 2035,
      "AD": 2036,
      "Ġtimestamp": 2037,
      "bound": 2038,
      "Ġspecify": 2039,
      "ĠComp": 2040,
      "Ġretri": 2041,
      "exc": 2042,
      "ead": 2043,
      "timeout": 2044,
      "Ġ&": 2045,
      "sy": 2046,
      "Ġcustom": 2047,
      "mediator": 2048,
      "Ġcoordin": 2049,
      "parser": 2050,
      "Ġupd": 2051,
      "net": 2052,
      "side": 2053,
      "AN": 2054,
      "SS": 2055,
      "Ġsa": 2056,
      "child": 2057,
      "========": 2058,
      "Ġ7": 2059,
      "Ġter": 2060,
      "Ġrequests": 2061,
      "lasses": 2062,
      "SC": 2063,
      "Ġgenerator": 2064,
      "Ġprob": 2065,
      "PO": 2066,
      "Ġqueue": 2067,
      "]]": 2068,
      "ose": 2069,
      "color": 2070,
      "Ġcharact": 2071,
      "FI": 2072,
      "Ġclo": 2073,
      "Ġsto": 2074,
      "undle": 2075,
      "redential": 2076,
      "Ġraw": 2077,
      "12": 2078,
      "ia": 2079,
      "Ġsubscription": 2080,
      "ights": 2081,
      "201": 2082,
      "dered": 2083,
      "now": 2084,
      "onth": 2085,
      "exception": 2086,
      "Ġbox": 2087,
      "axis": 2088,
      "Ġview": 2089,
      "Add": 2090,
      "ling": 2091,
      "Ġseries": 2092,
      "(_": 2093,
      "Ġgen": 2094,
      "page": 2095,
      "aly": 2096,
      "link": 2097,
      "decode": 2098,
      "search": 2099,
      "erate": 2100,
      "Ġmask": 2101,
      "vious": 2102,
      "abled": 2103,
      "range": 2104,
      "uild": 2105,
      "Ġselect": 2106,
      "Ġpaths": 2107,
      "other": 2108,
      "send": 2109,
      "Ġexpression": 2110,
      "Ġmark": 2111,
      "sol": 2112,
      "Ġserial": 2113,
      "Ġ'.": 2114,
      "Ġstop": 2115,
      "Ġbuild": 2116,
      "Not": 2117,
      "unter": 2118,
      "reshold": 2119,
      "TY": 2120,
      "alog": 2121,
      "Ġdest": 2122,
      "rt": 2123,
      "des": 2124,
      "remove": 2125,
      "Ġresol": 2126,
      "mount": 2127,
      "Ġsorted": 2128,
      "vo": 2129,
      "Ġhandle": 2130,
      "Ġ10": 2131,
      "Ġtransform": 2132,
      "utf": 2133,
      "graph": 2134,
      "Ġmessages": 2135,
      "xel": 2136,
      "ites": 2137,
      "Ġunder": 2138,
      "Ch": 2139,
      "Ġrecords": 2140,
      "down": 2141,
      "Ġwithin": 2142,
      "Ġ'%": 2143,
      "Ġpermission": 2144,
      "ttribute": 2145,
      "encode": 2146,
      "To": 2147,
      "itu": 2148,
      "location": 2149,
      "Ġmissing": 2150,
      "Ġstructure": 2151,
      "serial": 2152,
      "Ġsettings": 2153,
      "Ġinteger": 2154,
      "difi": 2155,
      "rypt": 2156,
      "box": 2157,
      "ĠConvert": 2158,
      "Ġmaximum": 2159,
      "cat": 2160,
      "}'.": 2161,
      "close": 2162,
      "ely": 2163,
      "Ġmesh": 2164,
      "aded": 2165,
      "function": 2166,
      "Ġoc": 2167,
      "headers": 2168,
      "mesh": 2169,
      "Ġdistance": 2170,
      "Ġ100": 2171,
      "scal": 2172,
      "Ġ9": 2173,
      "atures": 2174,
      "Ġpattern": 2175,
      "ulation": 2176,
      "coord": 2177,
      "empt": 2178,
      "ie": 2179,
      "ĊĠĠĠĠĠĠĠĠĠĠĠĠĠĠĠĠĠ": 2180,
      "Ġtemperature": 2181,
      "ason": 2182,
      "Ġpipeline": 2183,
      "Ġag": 2184,
      "char": 2185,
      "mary": 2186,
      "Ġendpoint": 2187,
      "Ġindic": 2188,
      "Ġawait": 2189,
      "Ġsent": 2190,
      "Ġjust": 2191,
      "Ġassoci": 2192,
      "Ġoriginal": 2193,
      "Object": 2194,
      "Ġph": 2195,
      "Ġreport": 2196,
      "Ġnumpy": 2197,
      "Ġrepresentation": 2198,
      "UL": 2199,
      "ĠGener": 2200,
      "med": 2201,
      "Ġcolumns": 2202,
      "uments": 2203,
      "Ġ<=": 2204,
      "({": 2205,
      "sort": 2206,
      "ĠOn": 2207,
      "Ġchannel": 2208,
      "rapper": 2209,
      "]):": 2210,
      "Ġgetattr": 2211,
      "Ġadded": 2212,
      "xy": 2213,
      "scrib": 2214,
      "Ġinvalid": 2215,
      ".,": 2216,
      "Ġvar": 2217,
      "Ġwant": 2218,
      "Ġcannot": 2219,
      "Ġcomponents": 2220,
      "Ġenumerate": 2221,
      "Ġpossible": 2222,
      "Ġtemplate": 2223,
      "Ġlabels": 2224,
      "ick": 2225,
      "Ġcli": 2226,
      "mail": 2227,
      "mal": 2228,
      "solution": 2229,
      "section": 2230,
      "mask": 2231,
      "Ġdecor": 2232,
      "last": 2233,
      "Ġ\"\"": 2234,
      "curs": 2235,
      "startswith": 2236,
      "tric": 2237,
      "ssure": 2238,
      "Ġsee": 2239,
      "Ġdifferent": 2240,
      "Ġstore": 2241,
      "CO": 2242,
      "String": 2243,
      "thing": 2244,
      "Ġpackage": 2245,
      "until": 2246,
      "tices": 2247,
      "cret": 2248,
      "build": 2249,
      "org": 2250,
      "tree": 2251,
      "results": 2252,
      "nap": 2253,
      "ĠĠĠĠĠĠĠĠĠ": 2254,
      "ango": 2255,
      "ING": 2256,
      "32": 2257,
      "ared": 2258,
      "logger": 2259,
      "Ġspecific": 2260,
      "mer": 2261,
      "ĊĠĠĠĠĠĠĠĠĠĠĠĠĠĠĠĠĠĠĠĠ": 2262,
      "idget": 2263,
      "').": 2264,
      "Ġdon": 2265,
      "Ġassign": 2266,
      "Ġstep": 2267,
      "encies": 2268,
      "uture": 2269,
      "Ġbeing": 2270,
      "andard": 2271,
      "fact": 2272,
      "Ġhandler": 2273,
      "ĠOptional": 2274,
      "ĠKeyError": 2275,
      "Ġtitle": 2276,
      "ernel": 2277,
      "shot": 2278,
      "Ġelements": 2279,
      "ired": 2280,
      "Path": 2281,
      "channel": 2282,
      "keep": 2283,
      "pub": 2284,
      "Ġextract": 2285,
      "zure": 2286,
      "MP": 2287,
      "stack": 2288,
      "nodes": 2289,
      "Ġsupported": 2290,
      "Ġ]": 2291,
      "ux": 2292,
      "},": 2293,
      "...": 2294,
      "dist": 2295,
      "Ġencoding": 2296,
      "Ġregion": 2297,
      "schema": 2298,
      "init": 2299,
      "Ġthrough": 2300,
      "here": 2301,
      "Ġdirect": 2302,
      "Ġlink": 2303,
      "cle": 2304,
      "rop": 2305,
      "entity": 2306,
      "Ġseconds": 2307,
      "bar": 2308,
      "Ġwho": 2309,
      "Node": 2310,
      "Ġfin": 2311,
      "term": 2312,
      "ĠCal": 2313,
      "eps": 2314,
      "Ġutil": 2315,
      "Ġrandom": 2316,
      "Ġhere": 2317,
      "Ġ>=": 2318,
      "uplic": 2319,
      "``,": 2320,
      "akes": 2321,
      "RI": 2322,
      "Ġdown": 2323,
      "Ġmount": 2324,
      "mage": 2325,
      "cp": 2326,
      "ince": 2327,
      "ĠParse": 2328,
      "Ġinterface": 2329,
      "Option": 2330,
      "ĠQ": 2331,
      "25": 2332,
      "ĊĠĠĠĠĠĠĠĠĠĠĠĠĠĠĠĠĠĠĠĠĠ": 2333,
      "exp": 2334,
      "pass": 2335,
      "ĠUse": 2336,
      "Ġcorresponding": 2337,
      "description": 2338,
      "Ġsection": 2339,
      "CE": 2340,
      "QL": 2341,
      "Ġwidth": 2342,
      "oint": 2343,
      "ĠPath": 2344,
      "Ġentries": 2345,
      "ighb": 2346,
      "Ġcer": 2347,
      "ists": 2348,
      "del": 2349,
      "ane": 2350,
      "Ġwithout": 2351,
      "Ġinstead": 2352,
      "MA": 2353,
      "ffi": 2354,
      "####": 2355,
      "next": 2356,
      "Ġsave": 2357,
      "Ġfollowing": 2358,
      "full": 2359,
      "normal": 2360,
      "ĠRead": 2361,
      "Ġloop": 2362,
      "board": 2363,
      "RO": 2364,
      "Ġasync": 2365,
      "Ġnamespace": 2366,
      "ternal": 2367,
      "Job": 2368,
      "Message": 2369,
      "Ġpla": 2370,
      "ript": 2371,
      "cho": 2372,
      "Ġgo": 2373,
      "Ġchange": 2374,
      "stru": 2375,
      "Ġboolean": 2376,
      "cmd": 2377,
      "timestamp": 2378,
      "Ġge": 2379,
      "Returns": 2380,
      "Ġmapping": 2381,
      "Ġdir": 2382,
      "']['": 2383,
      "untime": 2384,
      "access": 2385,
      "handle": 2386,
      "anged": 2387,
      "ranch": 2388,
      "requ": 2389,
      "project": 2390,
      "istry": 2391,
      "metadata": 2392,
      "Ġmedi": 2393,
      "ND": 2394,
      "Ġtrue": 2395,
      "ĠRes": 2396,
      "Ġdimension": 2397,
      "groups": 2398,
      "ODO": 2399,
      "Ġthread": 2400,
      "TION": 2401,
      "lice": 2402,
      "Ġglobal": 2403,
      "Ġlong": 2404,
      "Ġimplement": 2405,
      "Ġpython": 2406,
      "secon": 2407,
      "mem": 2408,
      "atted": 2409,
      "labels": 2410,
      "Ġexecut": 2411,
      "ven": 2412,
      "ush": 2413,
      "Ġforce": 2414,
      "Ġfail": 2415,
      "itude": 2416,
      "my": 2417,
      "Ġvector": 2418,
      "ĠNumber": 2419,
      "Ġallowed": 2420,
      "directory": 2421,
      "identifier": 2422,
      "leted": 2423,
      "matrix": 2424,
      "En": 2425,
      "ĠRemo": 2426,
      "itive": 2427,
      "sets": 2428,
      "Ġmethods": 2429,
      "sys": 2430,
      "ĠOpen": 2431,
      ">`": 2432,
      "PC": 2433,
      "eded": 2434,
      "Ġspace": 2435,
      "otal": 2436,
      "requi": 2437,
      "DataFrame": 2438,
      "Ġsplit": 2439,
      "esc": 2440,
      "served": 2441,
      "Ġauthentic": 2442,
      "annot": 2443,
      "warning": 2444,
      "Ġvolume": 2445,
      "change": 2446,
      "column": 2447,
      "ĊĠĠĠĠĠĠĠĠĠĠĠĠĠĠĠĠĠĠĠĠĠĠ": 2448,
      "vide": 2449,
      "izes": 2450,
      "Ġhelp": 2451,
      "tore": 2452,
      "objects": 2453,
      "ek": 2454,
      "Ġbinary": 2455,
      "Ġiterable": 2456,
      "known": 2457,
      "Ġremote": 2458,
      "Ġspecification": 2459,
      "Ġtrack": 2460,
      "Ġvis": 2461,
      "Ġsensor": 2462,
      "Ġ__": 2463,
      "04": 2464,
      "connection": 2465,
      "settings": 2466,
      "card": 2467,
      "cause": 2468,
      "inst": 2469,
      "aries": 2470,
      ",)": 2471,
      "lem": 2472,
      "ĊĠĠĠĠĠĠĠĠĠĠĠĠĠĠĠĠĠĠ": 2473,
      "ĊĠĠĠĠĠĠĠĠĠĠĠĠĠĠĠĠĠĠĠĠĠĠĠĠĠ": 2474,
      "Ġrelative": 2475,
      "Ġus": 2476,
      "buffer": 2477,
      "vate": 2478,
      "Ġprevious": 2479,
      "atter": 2480,
      "ans": 2481,
      "Ġslot": 2482,
      "Ġwrit": 2483,
      "paths": 2484,
      "Ġbyte": 2485,
      "Ġidx": 2486,
      "Ġcomponent": 2487,
      "Ġevery": 2488,
      "Ġho": 2489,
      "ĠExamples": 2490,
      "cip": 2491,
      "make": 2492,
      "Ġappro": 2493,
      "Ġlayer": 2494,
      "ster": 2495,
      "Ġpassword": 2496,
      "Ġassociated": 2497,
      "Ġsimp": 2498,
      "napshot": 2499,
      "ĠLOG": 2500,
      "Ġindices": 2501,
      "go": 2502,
      "Ġca": 2503,
      "TYPE": 2504,
      "Ġcent": 2505,
      "ĠTODO": 2506,
      "Ġenvironment": 2507,
      "Ġextension": 2508,
      "properties": 2509,
      "Ġthese": 2510,
      "Ġcould": 2511,
      "izer": 2512,
      "Ġpop": 2513,
      "ideo": 2514,
      "Ġright": 2515,
      "lex": 2516,
      "Ġdb": 2517,
      "State": 2518,
      "Ġwindow": 2519,
      "ump": 2520,
      "Ġdomain": 2521,
      "mbol": 2522,
      "her": 2523,
      "lish": 2524,
      "Ġrequire": 2525,
      "den": 2526,
      "only": 2527,
      "Ġinclu": 2528,
      "Ġhttp": 2529,
      "dout": 2530,
      "Ġgenerate": 2531,
      "man": 2532,
      "Ġmer": 2533,
      "Ġconf": 2534,
      "ĠDo": 2535,
      "Ġcallable": 2536,
      ":]": 2537,
      "Ġip": 2538,
      "ont": 2539,
      "Ġour": 2540,
      "Ġuntil": 2541,
      "Ġpresent": 2542,
      "Ġdisplay": 2543,
      "txt": 2544,
      "FA": 2545,
      "meth": 2546,
      "istered": 2547,
      "Parser": 2548,
      "Ġdelete": 2549,
      "Ġskip": 2550,
      "rec": 2551,
      "Info": 2552,
      "delete": 2553,
      "ĠNotes": 2554,
      "Ġbecause": 2555,
      "Ġnamed": 2556,
      "test": 2557,
      "valu": 2558,
      "ĠExample": 2559,
      "ferences": 2560,
      "mc": 2561,
      "als": 2562,
      "Ġstored": 2563,
      "fra": 2564,
      "----------------": 2565,
      "Ġabout": 2566,
      "empty": 2567,
      "angle": 2568,
      "yg": 2569,
      "ometry": 2570,
      "solute": 2571,
      "Invalid": 2572,
      "gor": 2573,
      "river": 2574,
      "ĊĠĠĠĠĠĠĠĠĠĠĠĠĠĠĠĠĠĠĠĠĠĠĠĠĠĠĠĠĠĠĠĠĠĠĠĠĠĠĠĠĠĠĠĠĠĠĠĠ": 2575,
      "less": 2576,
      "Ġsignature": 2577,
      "lyph": 2578,
      "Dict": 2579,
      "Ġday": 2580,
      "Cont": 2581,
      "ql": 2582,
      "Ġsepar": 2583,
      "ĠAzure": 2584,
      "direct": 2585,
      "env": 2586,
      "rain": 2587,
      "Ġdistribution": 2588,
      "DI": 2589,
      "iod": 2590,
      "ions": 2591,
      "gnore": 2592,
      "bers": 2593,
      "ĠDi": 2594,
      "Ġusername": 2595,
      "reates": 2596,
      "Ġpol": 2597,
      "Ġcollection": 2598,
      "rp": 2599,
      "tract": 2600,
      "ndarray": 2601,
      "Ġsite": 2602,
      "No": 2603,
      "ĠĠĠĠĠĠĠĠĠĠ": 2604,
      "Ġboth": 2605,
      "compon": 2606,
      "16": 2607,
      "unit": 2608,
      "Config": 2609,
      "Ġzip": 2610,
      "oper": 2611,
      "ength": 2612,
      "device": 2613,
      "extra": 2614,
      "Ġzero": 2615,
      "ĠOther": 2616,
      "ward": 2617,
      "ptim": 2618,
      "gest": 2619,
      "sample": 2620,
      "ten": 2621,
      "Ġnow": 2622,
      "ross": 2623,
      "gb": 2624,
      "zh": 2625,
      "atform": 2626,
      "Ġhasattr": 2627,
      "defin": 2628,
      "ffix": 2629,
      "ru": 2630,
      "atist": 2631,
      "Result": 2632,
      "radius": 2633,
      "lambda": 2634,
      "ĊĠĠĠĠĠĠĠĠĠĠĠĠĠĠĠĠĠĠĠĠĠĠĠĠĠĠĠĠ": 2635,
      "straint": 2636,
      "over": 2637,
      "HE": 2638,
      "sen": 2639,
      "Ġren": 2640,
      "book": 2641,
      "ĠBuild": 2642,
      "Ġagain": 2643,
      "zone": 2644,
      "Ġmatching": 2645,
      "ured": 2646,
      "ene": 2647,
      "ĠDefaults": 2648,
      "Ġaction": 2649,
      "Ġscope": 2650,
      "Ġ(:": 2651,
      "diff": 2652,
      "Ġheight": 2653,
      "math": 2654,
      "domain": 2655,
      "store": 2656,
      "coder": 2657,
      "Ġcond": 2658,
      "Ġevents": 2659,
      "contain": 2660,
      "gorith": 2661,
      "ATE": 2662,
      "fn": 2663,
      "LI": 2664,
      "Ġremoved": 2665,
      "Graph": 2666,
      "mod": 2667,
      "ĠCh": 2668,
      ".\"": 2669,
      "dtype": 2670,
      "Ġ''": 2671,
      "roll": 2672,
      "unset": 2673,
      "ively": 2674,
      "Ġcorrect": 2675,
      "Comp": 2676,
      "ories": 2677,
      "Ġ'-": 2678,
      "antity": 2679,
      "handler": 2680,
      "serv": 2681,
      "Ġerr": 2682,
      "Ġarea": 2683,
      "Ġrequested": 2684,
      "username": 2685,
      "Ġhttps": 2686,
      "Ġlanguage": 2687,
      "columns": 2688,
      "Ġshow": 2689,
      "Ġintern": 2690,
      "=[": 2691,
      "Index": 2692,
      "Ġet": 2693,
      "Ġ'{": 2694,
      "ĠEn": 2695,
      "]))": 2696,
      "Ġannot": 2697,
      "extend": 2698,
      "Ġapplication": 2699,
      "orig": 2700,
      "Ġrepresenting": 2701,
      "Ġvariables": 2702,
      "active": 2703,
      "save": 2704,
      "ences": 2705,
      "Query": 2706,
      "Col": 2707,
      "ias": 2708,
      "Ġfit": 2709,
      "']:": 2710,
      "Ġinstances": 2711,
      "Ġsecond": 2712,
      "day": 2713,
      "samples": 2714,
      "Ġdefaults": 2715,
      "Ġdepth": 2716,
      "Ġfailed": 2717,
      "xml": 2718,
      "Ġq": 2719,
      "Ġpe": 2720,
      "loop": 2721,
      "ables": 2722,
      "ĠValid": 2723,
      "ULT": 2724,
      "\"):": 2725,
      "culate": 2726,
      "ĊĠĠĠĠĠĠĠĠĠĠĠĠĠĠĠĠĠĠĠĠĠĠĠĠĠĠĠĠĠ": 2727,
      "okie": 2728,
      "Ġdoesn": 2729,
      "Check": 2730,
      "indi": 2731,
      "factor": 2732,
      "pher": 2733,
      "zer": 2734,
      "Ġkeep": 2735,
      "depend": 2736,
      "Ġnd": 2737,
      "Create": 2738,
      "Ġ{}\".": 2739,
      "Ġsupport": 2740,
      "Ġins": 2741,
      "ygon": 2742,
      "Ġrunning": 2743,
      "Ġedge": 2744,
      "ways": 2745,
      "Ġapply": 2746,
      "crypt": 2747,
      "ĠWhether": 2748,
      "cf": 2749,
      "ancel": 2750,
      "Ġiss": 2751,
      "\\\\": 2752,
      "Ġprop": 2753,
      "Ġpixel": 2754,
      "Ġlibrary": 2755,
      "Ġmain": 2756,
      "ives": 2757,
      "gments": 2758,
      "kg": 2759,
      "aml": 2760,
      "Response": 2761,
      "gram": 2762,
      "http": 2763,
      "requency": 2764,
      "argv": 2765,
      "Ġstack": 2766,
      "upported": 2767,
      "formed": 2768,
      "ĊĊĉ": 2769,
      "ending": 2770,
      "first": 2771,
      "Ġ(\"": 2772,
      "cording": 2773,
      "Ġsuper": 2774,
      "The": 2775,
      "vfs": 2776,
      "Ġignore": 2777,
      "Ġow": 2778,
      "Ġleft": 2779,
      "ould": 2780,
      "src": 2781,
      "Ġequal": 2782,
      "vers": 2783,
      "Ġhigh": 2784,
      "ĠFind": 2785,
      "scale": 2786,
      "Ġhow": 2787,
      "Read": 2788,
      "Fa": 2789,
      "verage": 2790,
      "Ġencoded": 2791,
      "derr": 2792,
      "zip": 2793,
      "Ġman": 2794,
      "redentials": 2795,
      "dest": 2796,
      "redu": 2797,
      "mean": 2798,
      "Ġeffect": 2799,
      "strict": 2800,
      "Store": 2801,
      "Ġyour": 2802,
      "NAME": 2803,
      "Ġscale": 2804,
      "abs": 2805,
      "Ġmatches": 2806,
      "Ġemail": 2807,
      "errors": 2808,
      "tifact": 2809,
      "ivity": 2810,
      "gress": 2811,
      "warn": 2812,
      "Ġcho": 2813,
      "Ġpandas": 2814,
      "ĠRetri": 2815,
      "GER": 2816,
      "ik": 2817,
      "\"],": 2818,
      "manager": 2819,
      "Ġstri": 2820,
      "Ġkernel": 2821,
      "attrs": 2822,
      "ĠWhen": 2823,
      "LO": 2824,
      "Ġcell": 2825,
      "Ġfunctions": 2826,
      "Ġadj": 2827,
      "Ġwould": 2828,
      "2010": 2829,
      "reply": 2830,
      "Ġdisable": 2831,
      "events": 2832,
      "gorithm": 2833,
      "mbers": 2834,
      "ged": 2835,
      "cated": 2836,
      "Ġpublic": 2837,
      "au": 2838,
      "Ġreq": 2839,
      "Ġstandard": 2840,
      "termin": 2841,
      "Ċĉĉĉ": 2842,
      "Ġcursor": 2843,
      "allow": 2844,
      "meta": 2845,
      "(**": 2846,
      "fin": 2847,
      "ended": 2848,
      "ĠAttribute": 2849,
      "Ġindent": 2850,
      "API": 2851,
      "Ġresp": 2852,
      "pha": 2853,
      "Ġflag": 2854,
      "Ġupdated": 2855,
      "tab": 2856,
      "Ġinsert": 2857,
      "conf": 2858,
      "ĠUser": 2859,
      "ĊĠĠĠĠĠĠĠĠĠĠĠĠĠĠĠĠĠĠĠĠĠĠĠĠĠĠ": 2860,
      "ĠUpdate": 2861,
      "Ġclick": 2862,
      "20": 2863,
      "ank": 2864,
      "ffici": 2865,
      "hes": 2866,
      "older": 2867,
      "Ġunit": 2868,
      "Ġbuffer": 2869,
      "letion": 2870,
      "Ġcoordinates": 2871,
      "select": 2872,
      "Ġ------------": 2873,
      "ĊĠĠĠĠĠĠĠĠĠĠĠĠĠĠĠĠĠĠĠĠĠĠĠĠĠĠĠĠĠĠ": 2874,
      "ĠLoad": 2875,
      "Ġsince": 2876,
      "Ġcontrol": 2877,
      "Ġraised": 2878,
      "CT": 2879,
      "KE": 2880,
      "Ġcategory": 2881,
      "Ġbatch": 2882,
      "Ġworkflow": 2883,
      "allet": 2884,
      "ectors": 2885,
      "ĠGiven": 2886,
      "left": 2887,
      "Ġidentifi": 2888,
      "Ġclose": 2889,
      "Ġassume": 2890,
      "ava": 2891,
      "Ġmemory": 2892,
      "sync": 2893,
      "scope": 2894,
      "height": 2895,
      "Ġprotocol": 2896,
      "ness": 2897,
      "sa": 2898,
      "Ġunits": 2899,
      "series": 2900,
      "Ġpool": 2901,
      "58": 2902,
      "Ġdone": 2903,
      "mult": 2904,
      "Ġfra": 2905,
      "ĠTrans": 2906,
      "Ġsegment": 2907,
      "Ġ-----": 2908,
      "ĠCont": 2909,
      "exists": 2910,
      "ĠCall": 2911,
      "Ġmember": 2912,
      "Ġndarray": 2913,
      "asic": 2914,
      "ases": 2915,
      "Ġrows": 2916,
      "chedule": 2917,
      "ĠOnly": 2918,
      "ĊĊĠĠĠĠĠĠĠĠĠ": 2919,
      "ĠImp": 2920,
      "ĠSh": 2921,
      "area": 2922,
      "ensity": 2923,
      "11": 2924,
      "Ġchunk": 2925,
      "Reg": 2926,
      "Ġkind": 2927,
      "'][": 2928,
      "Connection": 2929,
      "cast": 2930,
      "oid": 2931,
      "Ġcontents": 2932,
      "ĠNo": 2933,
      "total": 2934,
      "Ġequ": 2935,
      "cessed": 2936,
      "import": 2937,
      "alled": 2938,
      "Ġfetch": 2939,
      "lat": 2940,
      "ĠBy": 2941,
      "Ġtransaction": 2942,
      "Ġsupp": 2943,
      "Ġtags": 2944,
      "Ġexpected": 2945,
      "Ġgra": 2946,
      "omatic": 2947,
      "delta": 2948,
      "Ġpressure": 2949,
      "Ġattempt": 2950,
      "Ġcalls": 2951,
      "atistics": 2952,
      "Ġgenerated": 2953,
      "Ġcached": 2954,
      "uring": 2955,
      "analysis": 2956,
      "cell": 2957,
      "Ġthose": 2958,
      "Ġfig": 2959,
      "payload": 2960,
      "Ġneeded": 2961,
      "Model": 2962,
      "ĠCol": 2963,
      "]['": 2964,
      "Ġnote": 2965,
      "Ġexport": 2966,
      "mcclient": 2967,
      "endpoint": 2968,
      "Ġproduct": 2969,
      "cessary": 2970,
      "Ġmost": 2971,
      "gin": 2972,
      "style": 2973,
      "Ġsocket": 2974,
      "US": 2975,
      "Ġpairs": 2976,
      "000": 2977,
      "ually": 2978,
      "Ġplugin": 2979,
      "Ġconst": 2980,
      "ĠOr": 2981,
      "tifi": 2982,
      "Ġaccording": 2983,
      "Ġvia": 2984,
      "CON": 2985,
      "Ġarch": 2986,
      "permission": 2987,
      "hook": 2988,
      "Ġvert": 2989,
      "Ġformatted": 2990,
      "factory": 2991,
      "CH": 2992,
      "Ġsamples": 2993,
      "Ġprofile": 2994,
      "Ġdetails": 2995,
      "Image": 2996,
      "used": 2997,
      "Ġreason": 2998,
      "ily": 2999,
      "Ġ[\"": 3000,
      "oken": 3001,
      "ww": 3002,
      "Ġcat": 3003,
      "Ġdt": 3004,
      "Ġweb": 3005,
      "Ġseq": 3006,
      "zhmcclient": 3007,
      "Form": 3008,
      "za": 3009,
      "ĠSub": 3010,
      ")),": 3011,
      "Ġcommit": 3012,
      "ĠOtherwise": 3013,
      "By": 3014,
      "LA": 3015,
      "Ġscore": 3016,
      "Ġthreshold": 3017,
      "Ġtargets": 3018,
      "lap": 3019,
      "template": 3020,
      "speci": 3021,
      "Ġfinal": 3022,
      "Ġdes": 3023,
      "Ġrule": 3024,
      "foo": 3025,
      "ĠArg": 3026,
      "rows": 3027,
      "Ġregistered": 3028,
      "Ġprior": 3029,
      "AP": 3030,
      "batch": 3031,
      "ws": 3032,
      "Ġ\"%": 3033,
      "sure": 3034,
      "ĠDE": 3035,
      "ĠStr": 3036,
      "execute": 3037,
      "pandas": 3038,
      "ĠIP": 3039,
      "ached": 3040,
      "Ġdefinition": 3041,
      "Ġdecorator": 3042,
      "XX": 3043,
      "reference": 3044,
      "ters": 3045,
      "ranscript": 3046,
      "FAULT": 3047,
      "yp": 3048,
      "ĠCreates": 3049,
      "Ġ{\"": 3050,
      "Ġentity": 3051,
      "Ġsure": 3052,
      "ĠAny": 3053,
      "IT": 3054,
      "pid": 3055,
      "sv": 3056,
      "Ġclean": 3057,
      "namespace": 3058,
      "Ġcharacters": 3059,
      "Th": 3060,
      "dio": 3061,
      "Ġalways": 3062,
      "/{": 3063,
      "rf": 3064,
      "Ġanaly": 3065,
      "asure": 3066,
      "ability": 3067,
      "Ġrout": 3068,
      "Ġadditional": 3069,
      "ibility": 3070,
      "tags": 3071,
      "Ent": 3072,
      "Ġbit": 3073,
      "licit": 3074,
      "Ġbucket": 3075,
      "transform": 3076,
      "Ġmeans": 3077,
      "clo": 3078,
      "istory": 3079,
      "indows": 3080,
      "Client": 3081,
      "}.": 3082,
      "Ġinternal": 3083,
      "reduce": 3084,
      "step": 3085,
      "Ġpd": 3086,
      "Ġcluster": 3087,
      "ĠDataFrame": 3088,
      "dified": 3089,
      "can": 3090,
      "git": 3091,
      "Ġwhat": 3092,
      "wd": 3093,
      "Ġpores": 3094,
      "Auth": 3095,
      "sumer": 3096,
      "tom": 3097,
      "hed": 3098,
      "paces": 3099,
      "Ġdefinitions": 3100,
      "ĠIO": 3101,
      "seconds": 3102,
      "Ġsupplied": 3103,
      "weight": 3104,
      "Ġconnected": 3105,
      "ĠAlso": 3106,
      "OU": 3107,
      "pattern": 3108,
      "urse": 3109,
      "optional": 3110,
      "ferred": 3111,
      "ving": 3112,
      "rence": 3113,
      "Ġwere": 3114,
      "Ġalias": 3115,
      "random": 3116,
      "Ġnecessary": 3117,
      "Ġminimum": 3118,
      "Ġreal": 3119,
      "ĠRemove": 3120,
      "rs": 3121,
      "zero": 3122,
      "Ġang": 3123,
      "Ġfix": 3124,
      "Ġinterval": 3125,
      "Ġsuccessful": 3126,
      "cb": 3127,
      "stop": 3128,
      "Ġexclude": 3129,
      "ĠConfig": 3130,
      "IO": 3131,
      "Number": 3132,
      "Ġlower": 3133,
      "Ġedges": 3134,
      ")[": 3135,
      "Ġrole": 3136,
      "Ġdesired": 3137,
      "Ġvideo": 3138,
      "Ġalong": 3139,
      "Ġvalidate": 3140,
      "ground": 3141,
      "thread": 3142,
      "Ġfactory": 3143,
      "Up": 3144,
      "cla": 3145,
      "kind": 3146,
      "ision": 3147,
      "unicode": 3148,
      "30": 3149,
      "sl": 3150,
      "čĊĠĠĠĠĠĠĠĠĠĠĠ": 3151,
      "parameters": 3152,
      "Ġ+-+-+-+-+-+-+-+-+-+-+-+-+-+-+-+-+": 3153,
      ",,": 3154,
      "99": 3155,
      "classes": 3156,
      "Ġcons": 3157,
      "sheet": 3158,
      "User": 3159,
      "ugins": 3160,
      "Med": 3161,
      "Ġbot": 3162,
      "score": 3163,
      "report": 3164,
      "Ġfuture": 3165,
      "Class": 3166,
      "}\".": 3167,
      "Ġfill": 3168,
      "Ġauthentication": 3169,
      "ian": 3170,
      "wit": 3171,
      "mes": 3172,
      "ĠSets": 3173,
      "sha": 3174,
      "Hand": 3175,
      "lers": 3176,
      "Ġsig": 3177,
      "Ġ'{}": 3178,
      "resource": 3179,
      "Ġflags": 3180,
      "video": 3181,
      "NO": 3182,
      "ĠZ": 3183,
      "Ġrec": 3184,
      "Ġexc": 3185,
      "ĠMake": 3186,
      "Ġabsolute": 3187,
      "ET": 3188,
      "anti": 3189,
      "Ġbundle": 3190,
      "ulate": 3191,
      "ĊĠĠ": 3192,
      "stats": 3193,
      "anza": 3194,
      "Ġ16": 3195,
      "faces": 3196,
      "Ġlambda": 3197,
      "untimeError": 3198,
      "itor": 3199,
      "utation": 3200,
      "Ġselected": 3201,
      "encoding": 3202,
      "Ġshe": 3203,
      "Ġwarn": 3204,
      "Met": 3205,
      "emit": 3206,
      "Ġdirection": 3207,
      "Ġscript": 3208,
      "24": 3209,
      "Ġway": 3210,
      "cing": 3211,
      "gno": 3212,
      "ĠFile": 3213,
      "oom": 3214,
      "Ġperform": 3215,
      "15": 3216,
      "Ġbro": 3217,
      "ators": 3218,
      "vars": 3219,
      "Ġdirectly": 3220,
      "na": 3221,
      "insert": 3222,
      "storage": 3223,
      "Ġest": 3224,
      "uted": 3225,
      "Ġbackend": 3226,
      "Ġclosed": 3227,
      "Ġplace": 3228,
      "men": 3229,
      "Ġfrequency": 3230,
      "required": 3231,
      "rm": 3232,
      "ĊĠĠĠĠĠĠĠĠĊĠĠĠĠĠĠĠ": 3233,
      "Ġreader": 3234,
      "Ġduplic": 3235,
      "thro": 3236,
      "ĠAs": 3237,
      "dapt": 3238,
      "Ġinstall": 3239,
      "Ġpipe": 3240,
      "RF": 3241,
      "iver": 3242,
      "Ġsolution": 3243,
      "Ġanother": 3244,
      "chron": 3245,
      "Ġ\".": 3246,
      "ĠLength": 3247,
      "Ġauto": 3248,
      "udent": 3249,
      "non": 3250,
      "Ġuses": 3251,
      "Ġautomatic": 3252,
      "eg": 3253,
      "ilter": 3254,
      "Ġpair": 3255,
      "Ġ{}'.": 3256,
      "fetch": 3257,
      "bose": 3258,
      "container": 3259,
      "ynchron": 3260,
      "Ġdependencies": 3261,
      "sig": 3262,
      "ressed": 3263,
      "attributes": 3264,
      "Ġfactor": 3265,
      "indices": 3266,
      "Ġ+-+-+-+-+-+-+-+-+-+-+-+-+-+-+-+-+-+-+-+-+-+-+-+-+-+-+-+-+-+-+-+-+": 3267,
      "Group": 3268,
      "Ġtake": 3269,
      "Ġmanager": 3270,
      "Ġworker": 3271,
      "HT": 3272,
      "apt": 3273,
      "long": 3274,
      "Ġgre": 3275,
      "mpp": 3276,
      "Ġsignal": 3277,
      "position": 3278,
      "flags": 3279,
      "Ġcenter": 3280,
      "Element": 3281,
      "ĠTask": 3282,
      "Ġ[[": 3283,
      "Ġdataframe": 3284,
      "hift": 3285,
      "reader": 3286,
      "posit": 3287,
      "CP": 3288,
      "where": 3289,
      "cimal": 3290,
      "ĠXML": 3291,
      "Al": 3292,
      "Ġaccept": 3293,
      "Ġneg": 3294,
      "Ġweight": 3295,
      "Ġagainst": 3296,
      "ately": 3297,
      "umps": 3298,
      "Ġgroups": 3299,
      "Ġprocessing": 3300,
      "`)": 3301,
      "atio": 3302,
      "alias": 3303,
      "cker": 3304,
      "exit": 3305,
      "Ġstyle": 3306,
      "ĠPer": 3307,
      "Inter": 3308,
      "Ġoverri": 3309,
      "Ġpartition": 3310,
      "'}": 3311,
      "ha": 3312,
      "Ġnet": 3313,
      "Ġsm": 3314,
      "Ġwell": 3315,
      "Ġmonth": 3316,
      "Call": 3317,
      "UN": 3318,
      "emp": 3319,
      "slot": 3320,
      "Ġarrays": 3321,
      "ĊĠĠĠĠĠĠĠĠĠĠĠĠĠĠĠĠĠĠĠĠĠĠĠĠĠĠĠĠĠĠĠĠĠĠĠ": 3322,
      "argument": 3323,
      "INT": 3324,
      "writer": 3325,
      "Ġcomb": 3326,
      "Ġtimes": 3327,
      ":`~.": 3328,
      "TO": 3329,
      "Ġreply": 3330,
      "ĠReg": 3331,
      "Ġregister": 3332,
      "Process": 3333,
      "Ġactual": 3334,
      "=(": 3335,
      "rate": 3336,
      "Ġagg": 3337,
      "attribute": 3338,
      "riteria": 3339,
      "ĠPre": 3340,
      "Ġcompute": 3341,
      "Ġder": 3342,
      "Ġartifact": 3343,
      "Ġfeature": 3344,
      "components": 3345,
      "Valid": 3346,
      "year": 3347,
      "remote": 3348,
      "ars": 3349,
      "Ġ'\\": 3350,
      "Ġstats": 3351,
      "dim": 3352,
      "Ġroute": 3353,
      "Ġexecute": 3354,
      "fill": 3355,
      "ĠSend": 3356,
      "ategories": 3357,
      "Ġdestination": 3358,
      "VE": 3359,
      "ier": 3360,
      "ĠTo": 3361,
      "tial": 3362,
      "socket": 3363,
      "Service": 3364,
      "Ġ'_": 3365,
      "Ġtempor": 3366,
      "desc": 3367,
      "ulated": 3368,
      "ĠTime": 3369,
      "olver": 3370,
      "Ġmetric": 3371,
      "andid": 3372,
      "Ġsetting": 3373,
      "Ġtransl": 3374,
      "Ġaxes": 3375,
      "lon": 3376,
      "patch": 3377,
      "xmpp": 3378,
      "pipeline": 3379,
      "Ġparsers": 3380,
      "ĠArguments": 3381,
      "rece": 3382,
      "semb": 3383,
      "ĠRuntimeError": 3384,
      "Ġretrieve": 3385,
      "ctx": 3386,
      "alt": 3387,
      "Ġctx": 3388,
      "ish": 3389,
      "ĠRequest": 3390,
      "Ġsafe": 3391,
      "fit": 3392,
      "pn": 3393,
      "ilder": 3394,
      "Ġbounds": 3395,
      "Ġreceived": 3396,
      "Ġflow": 3397,
      "validate": 3398,
      "Ġcommands": 3399,
      "Ġigno": 3400,
      "det": 3401,
      "Ġmeta": 3402,
      "Ġneighb": 3403,
      "comment": 3404,
      "angles": 3405,
      "https": 3406,
      "atterns": 3407,
      "FF": 3408,
      "Ġoptim": 3409,
      "Ġbest": 3410,
      "Ġinterpol": 3411,
      "Ġpartic": 3412,
      "tificate": 3413,
      "Ġcurrently": 3414,
      "Map": 3415,
      "Task": 3416,
      "ĠGraph": 3417,
      "Ġcomplete": 3418,
      "Ġfolder": 3419,
      "cores": 3420,
      "ĠAll": 3421,
      "ĠObject": 3422,
      "region": 3423,
      "LD": 3424,
      "Ġwrap": 3425,
      "ĠRE": 3426,
      "Ġvertices": 3427,
      "commit": 3428,
      "Optional": 3429,
      "EX": 3430,
      "ues": 3431,
      "duced": 3432,
      "33": 3433,
      "specifi": 3434,
      "alk": 3435,
      "Ġclasses": 3436,
      "Ġplt": 3437,
      "FO": 3438,
      "Imp": 3439,
      "()):": 3440,
      "loads": 3441,
      "Ġperiod": 3442,
      "case": 3443,
      "email": 3444,
      "Ġonce": 3445,
      "ified": 3446,
      "Ġdelta": 3447,
      "Base": 3448,
      "Ġtakes": 3449,
      "Ġenv": 3450,
      "Ġ},": 3451,
      "Ġfilters": 3452,
      "Found": 3453,
      "sequence": 3454,
      "Ġsid": 3455,
      "Ġexit": 3456,
      "ĠRun": 3457,
      "Ġupper": 3458,
      "Text": 3459,
      "vector": 3460,
      "arr": 3461,
      "ĠAc": 3462,
      "ĠĠĠĠĠĠĠĠĠĠĠĠĠĠĠĠĠĠ": 3463,
      "TIME": 3464,
      "Quantity": 3465,
      "Ġrender": 3466,
      "ient": 3467,
      "month": 3468,
      "Ġevalu": 3469,
      "ically": 3470,
      "precated": 3471,
      "Ġsets": 3472,
      "={": 3473,
      "UE": 3474,
      "eves": 3475,
      "Ġinv": 3476,
      "Ġmath": 3477,
      "Ġalle": 3478,
      "Ġfaces": 3479,
      "Ġtokens": 3480,
      "TH": 3481,
      "ithub": 3482,
      "cond": 3483,
      "cluster": 3484,
      "Sh": 3485,
      "_{": 3486,
      "Ġchanges": 3487,
      "bove": 3488,
      "AM": 3489,
      "_,": 3490,
      "Ġwrapper": 3491,
      "idden": 3492,
      "Ġorigin": 3493,
      "Ġfinally": 3494,
      "straints": 3495,
      "ware": 3496,
      "fname": 3497,
      "Ġcla": 3498,
      "Ġsrc": 3499,
      "ram": 3500,
      "Ġsetup": 3501,
      "ĠInput": 3502,
      "Ġinterpre": 3503,
      "numpy": 3504,
      "package": 3505,
      "Ġcharacter": 3506,
      "Ġdraw": 3507,
      "ĠSpecifi": 3508,
      "resses": 3509,
      "rout": 3510,
      "Ġdescrib": 3511,
      "expr": 3512,
      "Ġnumbers": 3513,
      "register": 3514,
      "peri": 3515,
      "Ġcalling": 3516,
      "Ġparts": 3517,
      "vision": 3518,
      "Ġtermin": 3519,
      "Ġcounter": 3520,
      "ĠService": 3521,
      "\"])": 3522,
      "02": 3523,
      "Ġbranch": 3524,
      "Ġloaded": 3525,
      "force": 3526,
      "Gener": 3527,
      "Pre": 3528,
      "Ġradius": 3529,
      "setup": 3530,
      "Ġlists": 3531,
      "licy": 3532,
      "Field": 3533,
      "0000": 3534,
      "Ġleast": 3535,
      "ensor": 3536,
      "Py": 3537,
      "hex": 3538,
      "Ġside": 3539,
      "Ġ200": 3540,
      "counts": 3541,
      "Ġactive": 3542,
      "Ġthroat": 3543,
      "Ġwidget": 3544,
      "Ġ',": 3545,
      "trics": 3546,
      "auto": 3547,
      "AA": 3548,
      "čĊĠĠĠ": 3549,
      "eter": 3550,
      "Ġmany": 3551,
      "ilt": 3552,
      "Ġsecret": 3553,
      "Ġless": 3554,
      "ĠGenerate": 3555,
      "Ġutils": 3556,
      "zeros": 3557,
      "=_": 3558,
      "Per": 3559,
      "TA": 3560,
      "messages": 3561,
      "distance": 3562,
      "Ġpower": 3563,
      "Ġsym": 3564,
      "ĠLOGGER": 3565,
      "tmp": 3566,
      "parts": 3567,
      "const": 3568,
      "Ġident": 3569,
      "Ġtmp": 3570,
      "Ġretry": 3571,
      "Ġcolors": 3572,
      "Ġworking": 3573,
      "ioxmpp": 3574,
      "Ġautomatically": 3575,
      "YY": 3576,
      "dot": 3577,
      "Ġfmt": 3578,
      "upper": 3579,
      "ritical": 3580,
      "Ġcompat": 3581,
      "ĠIndex": 3582,
      "Ġprivate": 3583,
      "Ġoccur": 3584,
      "]],": 3585,
      "light": 3586,
      "Ġresources": 3587,
      "pore": 3588,
      "ampling": 3589,
      "Dis": 3590,
      "ink": 3591,
      "ynam": 3592,
      "lies": 3593,
      "quences": 3594,
      "ategy": 3595,
      "Ġcommon": 3596,
      "Ġappropri": 3597,
      "Ġignored": 3598,
      "DF": 3599,
      "ping": 3600,
      "Ġband": 3601,
      "Ġyear": 3602,
      "'''": 3603,
      "processing": 3604,
      "Analysis": 3605,
      "password": 3606,
      "Ġdetermin": 3607,
      "amer": 3608,
      "olve": 3609,
      "okup": 3610,
      "Ġpercent": 3611,
      "Date": 3612,
      "SO": 3613,
      "cli": 3614,
      "tml": 3615,
      "DataArray": 3616,
      "secret": 3617,
      "alle": 3618,
      "profile": 3619,
      "ĠHand": 3620,
      "servation": 3621,
      "cision": 3622,
      "nan": 3623,
      "Ġabove": 3624,
      "inger": 3625,
      "ctories": 3626,
      "Ġuseful": 3627,
      "Ġqual": 3628,
      "plotlib": 3629,
      "generate": 3630,
      "property": 3631,
      "dic": 3632,
      "tools": 3633,
      "Ġface": 3634,
      "Sub": 3635,
      "track": 3636,
      "Ġrecurs": 3637,
      "ĠWork": 3638,
      "cols": 3639,
      "Ġknown": 3640,
      "ocab": 3641,
      "fficient": 3642,
      "Row": 3643,
      "hod": 3644,
      "stdout": 3645,
      "ssing": 3646,
      "Ġalgorithm": 3647,
      "Ġindicate": 3648,
      "ntax": 3649,
      "workflow": 3650,
      "Ġincluded": 3651,
      "`:": 3652,
      "bs": 3653,
      "tr": 3654,
      "Ġlat": 3655,
      "Ġshort": 3656,
      "TR": 3657,
      "riend": 3658,
      "chedul": 3659,
      "'re": 3660,
      "ls": 3661,
      "Ġdesc": 3662,
      "ilar": 3663,
      "Ġcalculated": 3664,
      "sym": 3665,
      "DB": 3666,
      "gy": 3667,
      "ox": 3668,
      "cii": 3669,
      "bin": 3670,
      "Ġplay": 3671,
      "ptr": 3672,
      "gre": 3673,
      "head": 3674,
      "encoded": 3675,
      "lector": 3676,
      "Ġduring": 3677,
      "dicate": 3678,
      "Entry": 3679,
      "periment": 3680,
      "Trans": 3681,
      "children": 3682,
      "Ġappend": 3683,
      "Ġwhose": 3684,
      "Ġetc": 3685,
      "/%": 3686,
      "fft": 3687,
      "ĠExec": 3688,
      "ValueError": 3689,
      "iator": 3690,
      "vm": 3691,
      "ather": 3692,
      "ridge": 3693,
      "Ġcounts": 3694,
      "]),": 3695,
      "ĠPO": 3696,
      "('\\": 3697,
      "show": 3698,
      "Ġleader": 3699,
      "folder": 3700,
      "glob": 3701,
      "Ġtile": 3702,
      "leg": 3703,
      "Ġmod": 3704,
      "Ġparticular": 3705,
      "II": 3706,
      "dumps": 3707,
      "ash": 3708,
      "irt": 3709,
      "ATI": 3710,
      "pping": 3711,
      "ĠIOError": 3712,
      "unpack": 3713,
      "tic": 3714,
      "Ġamount": 3715,
      "Ġinit": 3716,
      "dify": 3717,
      "Ġ_,": 3718,
      "Cal": 3719,
      "Ġgit": 3720,
      "olt": 3721,
      "Ġplatform": 3722,
      "Ġcalculate": 3723,
      "Ġdetect": 3724,
      "unique": 3725,
      "Ġcoordinate": 3726,
      "\"),": 3727,
      "Line": 3728,
      "UID": 3729,
      "Ġneeds": 3730,
      "Token": 3731,
      "after": 3732,
      "sted": 3733,
      "dataset": 3734,
      "termine": 3735,
      "irtual": 3736,
      "sources": 3737,
      "Ġsur": 3738,
      "Ġids": 3739,
      "Convert": 3740,
      "ĠInvalid": 3741,
      "Ġplane": 3742,
      "Ġrepresents": 3743,
      "rule": 3744,
      "vertices": 3745,
      "ĠOS": 3746,
      "Ġknow": 3747,
      "Ġshard": 3748,
      "_.": 3749,
      "Status": 3750,
      "ĠAttributeError": 3751,
      "Ġsnapshot": 3752,
      "Ġrespect": 3753,
      "Ġ12": 3754,
      "Ġexecution": 3755,
      "pint": 3756,
      "obs": 3757,
      "Ġregistry": 3758,
      "Ġ})": 3759,
      "ĠValue": 3760,
      "serialize": 3761,
      "Ġwarnings": 3762,
      "eno": 3763,
      "Ġmak": 3764,
      "Ġstarting": 3765,
      "STR": 3766,
      "Ġvertex": 3767,
      "Api": 3768,
      "From": 3769,
      "()))": 3770,
      "prop": 3771,
      "\"))": 3772,
      "Code": 3773,
      "lishe": 3774,
      "perty": 3775,
      "ĊĠĠĠĠĠĠĠĠĠĠĠĠĠĠĠĠĠĠĠĠĠĠĠĠĠĠĠĠĠĠĠĠĠ": 3776,
      "Ġcomment": 3777,
      "witch": 3778,
      "cut": 3779,
      "gine": 3780,
      "ĠMessage": 3781,
      "ĊĠĠĠĠĠĠĠĠĠĠĠĠĠĠĠĠĠĠĠĠĠĠĠĠĠĠĠĠĠĠĠĠĠĠ": 3782,
      "coords": 3783,
      "50": 3784,
      "On": 3785,
      "Ġcredentials": 3786,
      "Ġbelow": 3787,
      "Ġyet": 3788,
      "ĠString": 3789,
      "dev": 3790,
      "Ġhtml": 3791,
      "ĠNO": 3792,
      "Ġservices": 3793,
      "Mediator": 3794,
      "pository": 3795,
      "bl": 3796,
      "clean": 3797,
      "cursor": 3798,
      "ĠStart": 3799,
      "ynchronous": 3800,
      "jor": 3801,
      "Ġcy": 3802,
      "utput": 3803,
      "inc": 3804,
      "Ġsteps": 3805,
      "dimension": 3806,
      "Ġjobs": 3807,
      "riendly": 3808,
      "bind": 3809,
      "ices": 3810,
      "ration": 3811,
      "metric": 3812,
      "units": 3813,
      "Ġglob": 3814,
      "ĠAp": 3815,
      "Ġexpi": 3816,
      "ĠFI": 3817,
      "Ġinputs": 3818,
      "Spec": 3819,
      "Ġuri": 3820,
      "counter": 3821,
      "chor": 3822,
      "Ġmetab": 3823,
      "icro": 3824,
      "Ġinteractions": 3825,
      "ĠAdds": 3826,
      "site": 3827,
      "Ġmag": 3828,
      "Default": 3829,
      "radient": 3830,
      "Ġannotation": 3831,
      "Ġarchive": 3832,
      "Ġappropriate": 3833,
      "otype": 3834,
      "pair": 3835,
      "center": 3836,
      "########": 3837,
      "Ġpolygon": 3838,
      "Work": 3839,
      "wrap": 3840,
      "segment": 3841,
      "environ": 3842,
      "ription": 3843,
      "Ġjoin": 3844,
      "worker": 3845,
      "Ġoverwrite": 3846,
      "GET": 3847,
      "category": 3848,
      "Ġ):": 3849,
      "Ġeven": 3850,
      "Ġstates": 3851,
      "chain": 3852,
      "expected": 3853,
      "mitted": 3854,
      "utils": 3855,
      "Ġimplementation": 3856,
      "escription": 3857,
      "dt": 3858,
      "writ": 3859,
      "stderr": 3860,
      "Ġremain": 3861,
      "Ġdetermine": 3862,
      "Ġconstru": 3863,
      "pose": 3864,
      "Ġusage": 3865,
      "ough": 3866,
      "ilities": 3867,
      "ĠCan": 3868,
      "ildcard": 3869,
      "Ġtuples": 3870,
      "Ġchildren": 3871,
      "Lay": 3872,
      "initial": 3873,
      "eric": 3874,
      "expression": 3875,
      "Ġensure": 3876,
      "ĠHe": 3877,
      "Content": 3878,
      "Manager": 3879,
      "binary": 3880,
      "mv": 3881,
      "opt": 3882,
      "uuid": 3883,
      "('-": 3884,
      "ĠDis": 3885,
      "missing": 3886,
      "[:-": 3887,
      "ĠĠĠĠĠĠĠĠĠĠĠĠĠĠĠĠĠĠĠĠĠĠĠĠĠĠĠĠĠĠ": 3888,
      "ĠCompute": 3889,
      "Ġmarker": 3890,
      "ĠRetrieve": 3891,
      "80": 3892,
      "include": 3893,
      "lear": 3894,
      "scape": 3895,
      "clus": 3896,
      "Ġtasks": 3897,
      "Ġestim": 3898,
      "Or": 3899,
      "Ġcap": 3900,
      "Ġns": 3901,
      "Ġprogram": 3902,
      "Unable": 3903,
      "Ġresolve": 3904,
      "cfg": 3905,
      "cc": 3906,
      "lper": 3907,
      "Ġpore": 3908,
      "adding": 3909,
      "Ġtemporary": 3910,
      "jango": 3911,
      "mapping": 3912,
      "Ġcookie": 3913,
      "Ġchanged": 3914,
      "Ġencode": 3915,
      "Ġspecial": 3916,
      "collection": 3917,
      "Ġclasspath": 3918,
      "band": 3919,
      "erial": 3920,
      "Ġbar": 3921,
      "lour": 3922,
      "cesses": 3923,
      "ayload": 3924,
      "Ġgeometry": 3925,
      "Ġtango": 3926,
      "Ġweights": 3927,
      "words": 3928,
      "Ġhook": 3929,
      "Run": 3930,
      "Ġfails": 3931,
      "loaded": 3932,
      "Ġconstruct": 3933,
      "available": 3934,
      "assign": 3935,
      "Ġsaved": 3936,
      "={}": 3937,
      "global": 3938,
      "Ġbits": 3939,
      "vals": 3940,
      "URL": 3941,
      "dates": 3942,
      "Ġreverse": 3943,
      "Ġtool": 3944,
      "Ġmembers": 3945,
      "tered": 3946,
      "Ġ---------": 3947,
      "__)": 3948,
      "Ġassigned": 3949,
      "gits": 3950,
      "sim": 3951,
      "depth": 3952,
      "adapt": 3953,
      "Ġauthor": 3954,
      "Ġcondition": 3955,
      "KEY": 3956,
      "Ġfo": 3957,
      "Ġrelease": 3958,
      "Ġslice": 3959,
      "Ġnotification": 3960,
      "coming": 3961,
      "Ġdfvfs": 3962,
      "ĠHTML": 3963,
      "19": 3964,
      "github": 3965,
      "ka": 3966,
      "Ġstill": 3967,
      "Ġsuffix": 3968,
      "control": 3969,
      "Ġwords": 3970,
      "ParserMediator": 3971,
      "ueue": 3972,
      "Ġtoo": 3973,
      "otential": 3974,
      "Stream": 3975,
      "ĠDictionary": 3976,
      "lished": 3977,
      "hing": 3978,
      "}{": 3979,
      "ons": 3980,
      "Ġlate": 3981,
      "Ġresulting": 3982,
      "Ġxml": 3983,
      "Ġapplied": 3984,
      "Ġavoid": 3985,
      "amera": 3986,
      "SA": 3987,
      "bot": 3988,
      "Ġast": 3989,
      "Ġpers": 3990,
      "extension": 3991,
      "Ġenabled": 3992,
      "aily": 3993,
      "Ġpacket": 3994,
      "Failed": 3995,
      "34": 3996,
      "SH": 3997,
      "ĠNew": 3998,
      "links": 3999,
      "vider": 4000,
      "Ġdownload": 4001,
      "ĠOrdered": 4002,
      ".'": 4003,
      "Point": 4004,
      "Ġmy": 4005,
      "Ġstatic": 4006,
      "workspace": 4007,
      "backend": 4008,
      "Ġiterator": 4009,
      "author": 4010,
      "edge": 4011,
      "Ġlock": 4012,
      "Ġtrace": 4013,
      "Ġwritten": 4014,
      "HTTP": 4015,
      "PUT": 4016,
      "SP": 4017,
      "sd": 4018,
      "ret": 4019,
      "orter": 4020,
      "Ġsources": 4021,
      "parameter": 4022,
      "protocol": 4023,
      "Ġinstalled": 4024,
      "22": 4025,
      "Ġfn": 4026,
      "dian": 4027,
      "props": 4028,
      "Str": 4029,
      "Ġpixels": 4030,
      "55": 4031,
      "driver": 4032,
      "ĠIter": 4033,
      "Ġmulti": 4034,
      "Ġrest": 4035,
      "ĠTri": 4036,
      "Ġ((": 4037,
      "Ġobserved": 4038,
      "================": 4039,
      "NS": 4040,
      "lint": 4041,
      "language": 4042,
      "lev": 4043,
      "ticip": 4044,
      "achment": 4045,
      "ĠConstruct": 4046,
      "Server": 4047,
      "Do": 4048,
      "edges": 4049,
      "atten": 4050,
      "Ġchain": 4051,
      "modules": 4052,
      "Ġlookup": 4053,
      "bounds": 4054,
      "UP": 4055,
      "cap": 4056,
      "async": 4057,
      "Ġusers": 4058,
      "Ġindicates": 4059,
      "Version": 4060,
      "Ġadapt": 4061,
      "Ġdays": 4062,
      "Ġmight": 4063,
      "Ġ-----------": 4064,
      "Ġdocumentation": 4065,
      "UI": 4066,
      "Ġincre": 4067,
      "Ġdecode": 4068,
      "covery": 4069,
      "Ġbegin": 4070,
      "Ġsymbol": 4071,
      "Ġsummary": 4072,
      "Ġfailure": 4073,
      "Ġaggreg": 4074,
      "For": 4075,
      "RIP": 4076,
      "istent": 4077,
      "records": 4078,
      "Ġtopic": 4079,
      "iew": 4080,
      "}/": 4081,
      "ĠĠĠĠĠĠĠĠĠĠĠĠ": 4082,
      "mac": 4083,
      "Ġ20": 4084,
      "ĠWrite": 4085,
      "------------": 4086,
      "DEFAULT": 4087,
      "Ġconverted": 4088,
      "Ġattrs": 4089,
      "FILE": 4090,
      "Ġserialized": 4091,
      "leep": 4092,
      "agement": 4093,
      "endswith": 4094,
      "Ġhex": 4095,
      "bucket": 4096,
      "duces": 4097,
      "56": 4098,
      "Ġpmag": 4099,
      "Ġinc": 4100,
      "Ġ\"/": 4101,
      "Ġloc": 4102,
      "cheme": 4103,
      "hip": 4104,
      "WS": 4105,
      "utor": 4106,
      "unks": 4107,
      "Ġvectors": 4108,
      "pool": 4109,
      "signature": 4110,
      "stract": 4111,
      "ĠImport": 4112,
      "repo": 4113,
      "ĠAccess": 4114,
      "Ġchecks": 4115,
      "SET": 4116,
      "Ġinteg": 4117,
      "VER": 4118,
      "eger": 4119,
      "stit": 4120,
      "Ġbl": 4121,
      "pector": 4122,
      "lict": 4123,
      "cio": 4124,
      "portal": 4125,
      "Record": 4126,
      "complete": 4127,
      "Ġmodels": 4128,
      "SCRIP": 4129,
      "Ġmediates": 4130,
      "install": 4131,
      "Ġangle": 4132,
      "before": 4133,
      "Ġmerge": 4134,
      "This": 4135,
      "rack": 4136,
      "Ġnothing": 4137,
      "('%": 4138,
      "ĠWindows": 4139,
      "Iter": 4140,
      "Post": 4141,
      "Ġreset": 4142,
      "Ġdebug": 4143,
      "pied": 4144,
      "Ġexplicit": 4145,
      "Warning": 4146,
      "pk": 4147,
      "volume": 4148,
      "ĠĊĠĠĠĠĠĠĠ": 4149,
      "Ġopts": 4150,
      "ĠPayload": 4151,
      "neighb": 4152,
      "Ġdependency": 4153,
      "Attribute": 4154,
      "branch": 4155,
      "GB": 4156,
      "Write": 4157,
      "indent": 4158,
      "ogen": 4159,
      "fmt": 4160,
      "gp": 4161,
      "Ġpid": 4162,
      "Ġinstr": 4163,
      "Ġparsing": 4164,
      "Ġrate": 4165,
      "Ġmade": 4166,
      "ĠMo": 4167,
      "Ġsubprocess": 4168,
      "strings": 4169,
      "partition": 4170,
      "roller": 4171,
      "safe": 4172,
      "ĠSpecifies": 4173,
      "ading": 4174,
      "Ġ\"{": 4175,
      "rompt": 4176,
      "product": 4177,
      "mbed": 4178,
      "ĠUni": 4179,
      "Ġfeed": 4180,
      "Ġleaderboard": 4181,
      "jid": 4182,
      "Ġalpha": 4183,
      "Ġpick": 4184,
      "ORM": 4185,
      "Count": 4186,
      "Ġgreater": 4187,
      "Di": 4188,
      "`):": 4189,
      "ker": 4190,
      "eries": 4191,
      "Ġfalse": 4192,
      "Ġdesign": 4193,
      "(\"\\": 4194,
      "ĊĠĠĠĠĠĠĠĠĠĠĠĠĠĠĠĠĠĠĠĠĠĠĠĠĠĠĠĠĠĠĠĠĠĠĠĠ": 4195,
      "crete": 4196,
      "Session": 4197,
      "Ġproblem": 4198,
      "/',": 4199,
      "vas": 4200,
      "ited": 4201,
      "ascii": 4202,
      "Ġexact": 4203,
      "ĠĠĠĠĠĠĠĠĠĠĠĠĠĠĠĠĠĠĠĠĠĠĠĠĠĠĠĠĠĠĠĠ": 4204,
      "ields": 4205,
      "OP": 4206,
      "threshold": 4207,
      "ĠEach": 4208,
      "ĠBase": 4209,
      "ucture": 4210,
      "rpc": 4211,
      "custom": 4212,
      "Ġtranscript": 4213,
      "orld": 4214,
      "ĠInst": 4215,
      "basename": 4216,
      "tty": 4217,
      "Ġreads": 4218,
      "exceptions": 4219,
      "Ġconstructor": 4220,
      "pants": 4221,
      "Ġwarning": 4222,
      "Ġsequences": 4223,
      "Ġmeasure": 4224,
      "ĠCalculate": 4225,
      "Ġshell": 4226,
      "uch": 4227,
      "udio": 4228,
      "Ġdiction": 4229,
      "convert": 4230,
      "web": 4231,
      "models": 4232,
      "release": 4233,
      "ones": 4234,
      "lack": 4235,
      "ĠForm": 4236,
      "dirname": 4237,
      "Ġnested": 4238,
      "Ġshared": 4239,
      "ATH": 4240,
      "voice": 4241,
      "App": 4242,
      "ked": 4243,
      "ĊĠĠĠĠĊĠĠĠ": 4244,
      "route": 4245,
      "Ġdep": 4246,
      "added": 4247,
      "(\"%": 4248,
      "Ġconfigured": 4249,
      "__,": 4250,
      "Ġvalidation": 4251,
      "Ġimmedi": 4252,
      "Ġlogin": 4253,
      "umed": 4254,
      "Ġprovide": 4255,
      "Ġblocks": 4256,
      "ĠProcess": 4257,
      "Ġfall": 4258,
      "pars": 4259,
      "Start": 4260,
      "created": 4261,
      "defined": 4262,
      "af": 4263,
      "ever": 4264,
      "opts": 4265,
      "}'": 4266,
      "reat": 4267,
      "dep": 4268,
      "Ġcourse": 4269,
      "Ġhapp": 4270,
      "tool": 4271,
      "Ġprocessed": 4272,
      "ĠMax": 4273,
      "short": 4274,
      "flag": 4275,
      "Ġretrie": 4276,
      "Ġincluding": 4277,
      "ATION": 4278,
      "Block": 4279,
      "bis": 4280,
      "dst": 4281,
      "Ġput": 4282,
      "Ġsv": 4283,
      "Ġdeleted": 4284,
      "Ġgu": 4285,
      "ĠId": 4286,
      "abilities": 4287,
      "ĠFunction": 4288,
      "Ġrv": 4289,
      "Ġlocations": 4290,
      "Ro": 4291,
      "SL": 4292,
      "lier": 4293,
      "adj": 4294,
      "abel": 4295,
      "magic": 4296,
      "suffix": 4297,
      "Ġown": 4298,
      "Handler": 4299,
      "Ġfore": 4300,
      "Ġstudent": 4301,
      "Ġgas": 4302,
      "Ġ\"\\": 4303,
      "ĠMet": 4304,
      "Ġupload": 4305,
      "Ġpublish": 4306,
      "POST": 4307,
      "Table": 4308,
      "Ġisn": 4309,
      "cons": 4310,
      "istant": 4311,
      "Ġstatement": 4312,
      "Parameters": 4313,
      "MC": 4314,
      "bra": 4315,
      "wh": 4316,
      "std": 4317,
      "Ġdot": 4318,
      "Ġ''.": 4319,
      "Ġsen": 4320,
      "Ġcaller": 4321,
      "specs": 4322,
      "Series": 4323,
      "memory": 4324,
      "ingerprint": 4325,
      "cr": 4326,
      "real": 4327,
      "ĠInstance": 4328,
      "yncio": 4329,
      "oltage": 4330,
      "(['": 4331,
      "Bu": 4332,
      "Ġstdout": 4333,
      "Ġprogress": 4334,
      "ival": 4335,
      "ĠYou": 4336,
      "Ġfeatures": 4337,
      "iki": 4338,
      "Ġinside": 4339,
      "Ġds": 4340,
      "neg": 4341,
      "Ġrelated": 4342,
      "Ġalign": 4343,
      "NotFound": 4344,
      "Ġdictionaries": 4345,
      "95": 4346,
      "Pl": 4347,
      "Sc": 4348,
      "ool": 4349,
      "tation": 4350,
      "Ġ?": 4351,
      "Ġtr": 4352,
      "ined": 4353,
      "loy": 4354,
      "pare": 4355,
      "ĠParses": 4356,
      "Ġexceptions": 4357,
      "Ġlatest": 4358,
      "ĊĊĊĠĠĠĠĠĠĠ": 4359,
      "sep": 4360,
      "entries": 4361,
      "lying": 4362,
      "ĠInitial": 4363,
      "compile": 4364,
      "Ġallows": 4365,
      "elements": 4366,
      "Ġcustomer": 4367,
      "Ġpermissions": 4368,
      "({'": 4369,
      "Ġrepo": 4370,
      "Ġ'')": 4371,
      "Ġreturning": 4372,
      "changed": 4373,
      "ĠWill": 4374,
      "Ġlinear": 4375,
      "prior": 4376,
      "sorted": 4377,
      "Ġoverride": 4378,
      "Ġsmall": 4379,
      "Remo": 4380,
      "jar": 4381,
      "lv": 4382,
      "sql": 4383,
      "ze": 4384,
      "lim": 4385,
      "Ġexpect": 4386,
      "found": 4387,
      "outine": 4388,
      "Ġverbose": 4389,
      "Values": 4390,
      "document": 4391,
      "SCRIPTION": 4392,
      "*.": 4393,
      "14": 4394,
      "</": 4395,
      "Ġtx": 4396,
      "Ġdeprecated": 4397,
      "cod": 4398,
      "Ġmac": 4399,
      "Ġterm": 4400,
      "ynamic": 4401,
      "Le": 4402,
      "Ġsix": 4403,
      "ĠAST": 4404,
      "Ġitself": 4405,
      "ours": 4406,
      "aving": 4407,
      "Ġrequires": 4408,
      "Ġcatalog": 4409,
      "Ġsuccessfully": 4410,
      "ĠGraphQL": 4411,
      "router": 4412,
      "rev": 4413,
      "sensor": 4414,
      "Ġfont": 4415,
      "oto": 4416,
      "iler": 4417,
      "Ġ-=": 4418,
      "ĠDeter": 4419,
      "application": 4420,
      "imer": 4421,
      "clar": 4422,
      "Ġplugins": 4423,
      "targets": 4424,
      "Ġscan": 4425,
      "IC": 4426,
      "Tag": 4427,
      "Ġbad": 4428,
      "pairs": 4429,
      "trace": 4430,
      "Ġdisk": 4431,
      "sup": 4432,
      "Ġmove": 4433,
      "ĠPOST": 4434,
      "ivalent": 4435,
      ":%": 4436,
      "PRO": 4437,
      "window": 4438,
      "Ġbind": 4439,
      "Ġwriter": 4440,
      "chine": 4441,
      "Ġdirectories": 4442,
      "layer": 4443,
      "SION": 4444,
      "Ġfp": 4445,
      "Ġnorm": 4446,
      "role": 4447,
      "Ġmid": 4448,
      "ĠMust": 4449,
      "Ġjar": 4450,
      "addr": 4451,
      "defaults": 4452,
      "throat": 4453,
      "Ġnegative": 4454,
      "AGE": 4455,
      "lates": 4456,
      "ced": 4457,
      "ĠAss": 4458,
      "pressure": 4459,
      "Ġxarray": 4460,
      "Ġsubmission": 4461,
      "Ġlease": 4462,
      "dated": 4463,
      "---+": 4464,
      "Ġreferences": 4465,
      "ĠEvent": 4466,
      "Input": 4467,
      "Ġindicating": 4468,
      "100": 4469,
      "Page": 4470,
      "Ġkw": 4471,
      "Ġargin": 4472,
      "Ġleg": 4473,
      "Dev": 4474,
      "filters": 4475,
      "Ġnormalized": 4476,
      "ĠSerial": 4477,
      "Layer": 4478,
      "200": 4479,
      "60": 4480,
      "AB": 4481,
      "mf": 4482,
      "ĊĊĠĠĠĠĠĠĠĠĠĠĠĠĠĠĠĠĠĠĠ": 4483,
      "Ġcross": 4484,
      "ural": 4485,
      "itable": 4486,
      "loud": 4487,
      "quare": 4488,
      "argin": 4489,
      "display": 4490,
      "generator": 4491,
      "common": 4492,
      "levant": 4493,
      "ression": 4494,
      "Ġdensity": 4495,
      "Ġmut": 4496,
      "amily": 4497,
      "exclude": 4498,
      "ĠPage": 4499,
      "Ġsimple": 4500,
      "Format": 4501,
      "13": 4502,
      "We": 4503,
      "rag": 4504,
      "plugin": 4505,
      "Exec": 4506,
      "18": 4507,
      "SK": 4508,
      "aioxmpp": 4509,
      "Ġstrategy": 4510,
      "week": 4511,
      "Ġregex": 4512,
      "docs": 4513,
      "iterable": 4514,
      "Unknown": 4515,
      "clear": 4516,
      "member": 4517,
      "snapshot": 4518,
      "tle": 4519,
      "Ġcoe": 4520,
      "Ġ[(": 4521,
      "Ġversions": 4522,
      "astype": 4523,
      "Ġredirect": 4524,
      "Ġsw": 4525,
      "Ġselection": 4526,
      "ĊĠĠĠĠĠĠĠĠĠĠĠĠĠĠĠĠĠĠĠĠĠĠĠĠĠĠĠĠĠĠĠĠĠĠĠĠĠ": 4527,
      "Ġabort": 4528,
      "connected": 4529,
      "ParseError": 4530,
      "az": 4531,
      "Ġ~": 4532,
      "ĠOne": 4533,
      "Ġchecked": 4534,
      "allowed": 4535,
      "uous": 4536,
      "Ġfreq": 4537,
      "utdown": 4538,
      "Ġresolution": 4539,
      "tick": 4540,
      "reshape": 4541,
      "Ġbottom": 4542,
      "BU": 4543,
      "}:": 4544,
      "Ġra": 4545,
      "Ġ(%": 4546,
      "Ġglyph": 4547,
      "Ġ\"{}": 4548,
      "cipy": 4549,
      "ĊĠĠĠĠĠĠĠĠĠĠĠĠĠĠĠĠĠĠĠĠĠĠĠĠĠĠĠĠĠĠĠĠĠĠĠĠĠĠ": 4550,
      "ogram": 4551,
      "Update": 4552,
      "ES": 4553,
      "Function": 4554,
      "instr": 4555,
      "Ġans": 4556,
      "Ġstage": 4557,
      "umb": 4558,
      "ĠFilter": 4559,
      "Ġupdates": 4560,
      "Ġextracted": 4561,
      "havi": 4562,
      "RPC": 4563,
      "Tree": 4564,
      "tl": 4565,
      "true": 4566,
      "yaml": 4567,
      "Ġ$": 4568,
      "Ġescape": 4569,
      "Ġlar": 4570,
      "Ġmaster": 4571,
      "Ġraises": 4572,
      "ied": 4573,
      "Ġ[-": 4574,
      "colors": 4575,
      "merge": 4576,
      "frac": 4577,
      "Ġfigure": 4578,
      "Ġanalyses": 4579,
      "86": 4580,
      "reset": 4581,
      "Ġaround": 4582,
      "Ġvirtual": 4583,
      "resources": 4584,
      "percent": 4585,
      "Ġprecision": 4586,
      "acy": 4587,
      "Ġpylint": 4588,
      "caten": 4589,
      "Ġstrip": 4590,
      "ipeline": 4591,
      "norm": 4592,
      "null": 4593,
      "ĠĠĠĠĠĠĠĠĠĠĠ": 4594,
      "anded": 4595,
      "Ġ'#": 4596,
      "Ġtimezone": 4597,
      "psa": 4598,
      "ĠExtract": 4599,
      "Ġmodified": 4600,
      "Ġcertain": 4601,
      "Ġinspect": 4602,
      "Ġrules": 4603,
      "Ġsurface": 4604,
      "'\\": 4605,
      "draw": 4606,
      "high": 4607,
      "steps": 4608,
      "Ġpatterns": 4609,
      "ĠAuth": 4610,
      "Ġlow": 4611,
      "ignore": 4612,
      "times": 4613,
      "Ġnormalize": 4614,
      "public": 4615,
      "Ġmerged": 4616,
      "ĠHandle": 4617,
      "bi": 4618,
      "ets": 4619,
      "Ġda": 4620,
      "eds": 4621,
      "elper": 4622,
      "Ġasset": 4623,
      "Ġappe": 4624,
      "Ġsigned": 4625,
      "Ġincludes": 4626,
      "Ġdimensions": 4627,
      "Ġrequirements": 4628,
      "With": 4629,
      "forms": 4630,
      "Ġdepending": 4631,
      "ED": 4632,
      "System": 4633,
      "none": 4634,
      "room": 4635,
      "Ġbasic": 4636,
      "Ġembed": 4637,
      "('/": 4638,
      "ĠDict": 4639,
      "Ġvariant": 4640,
      "Ġfixed": 4641,
      "Range": 4642,
      "rl": 4643,
      "ished": 4644,
      "named": 4645,
      "Ġrgb": 4646,
      "transaction": 4647,
      "Ġsimulated": 4648,
      "ĠOrderedDict": 4649,
      "EN": 4650,
      "help": 4651,
      "Ġmon": 4652,
      "chunk": 4653,
      "ĠIN": 4654,
      "Ġhist": 4655,
      "based": 4656,
      "Ġimages": 4657,
      "tokens": 4658,
      "sidered": 4659,
      "Ġ1000": 4660,
      "dat": 4661,
      "Ġsyn": 4662,
      "Ġdaily": 4663,
      "unct": 4664,
      "Ġdelimit": 4665,
      "uble": 4666,
      "ĠURI": 4667,
      "geometry": 4668,
      "Ġfast": 4669,
      "Ġruns": 4670,
      "EventData": 4671,
      "expand": 4672,
      "VAL": 4673,
      "Ġconsidered": 4674,
      "district": 4675,
      "Ġexternal": 4676,
      "Ġdicts": 4677,
      "ĠHow": 4678,
      "ĊĠĠĠĠĠĠĠĠĠĠĠĠĠĠĠĠĠĠĠĠĠĠĠĠĠĠĠĠĠĠĠĠĠĠĠĠĠĠĠ": 4679,
      "Ġmodules": 4680,
      "Ġconnections": 4681,
      "Ġissue": 4682,
      "HO": 4683,
      "MB": 4684,
      "MS": 4685,
      "Ġ),": 4686,
      "Ġ::": 4687,
      "umul": 4688,
      "byte": 4689,
      "login": 4690,
      "creen": 4691,
      "csv": 4692,
      "Ġsomething": 4693,
      "03": 4694,
      "Box": 4695,
      "Ġcancel": 4696,
      "Ġexpr": 4697,
      "features": 4698,
      "weights": 4699,
      "Ġregular": 4700,
      "Ġworks": 4701,
      "Ġbuilt": 4702,
      "Log": 4703,
      "sq": 4704,
      "Ġcred": 4705,
      "Ġpotential": 4706,
      "Ġ201": 4707,
      "ĠVer": 4708,
      "osition": 4709,
      "signed": 4710,
      ".)": 4711,
      "Sign": 4712,
      "enabled": 4713,
      "Ġpn": 4714,
      "Ġschedule": 4715,
      "raps": 4716,
      "Ġcontact": 4717,
      "dataframe": 4718,
      "proxy": 4719,
      "Ġ32": 4720,
      "Ġscene": 4721,
      "LOG": 4722,
      "PAR": 4723,
      "SER": 4724,
      "slice": 4725,
      "Ġdst": 4726,
      "lookup": 4727,
      "Ġcollect": 4728,
      "buf": 4729,
      "Ġduplicate": 4730,
      "OK": 4731,
      "mine": 4732,
      "ton": 4733,
      "Ġtyp": 4734,
      "sens": 4735,
      "Ġaverage": 4736,
      "align": 4737,
      "admin": 4738,
      "services": 4739,
      "codes": 4740,
      "Ġtransport": 4741,
      "ĠAnalysis": 4742,
      "Ġabs": 4743,
      "variants": 4744,
      "Ġpopulation": 4745,
      "crypted": 4746,
      "Target": 4747,
      "aign": 4748,
      "Ġcandid": 4749,
      "Ġreci": 4750,
      "ampaign": 4751,
      "Ġtransition": 4752,
      "Timeout": 4753,
      "scribe": 4754,
      "(-": 4755,
      "java": 4756,
      "rgb": 4757,
      "syn": 4758,
      "Ġinstru": 4759,
      "export": 4760,
      "dfvfs": 4761,
      "variable": 4762,
      "tainer": 4763,
      "authentic": 4764,
      "Ġunderlying": 4765,
      "Ġremaining": 4766,
      ":-": 4767,
      "IL": 4768,
      "MO": 4769,
      "Ġinverse": 4770,
      "ĠThese": 4771,
      "ĠNormal": 4772,
      "Ġyaml": 4773,
      "ĠLog": 4774,
      "{}'.": 4775,
      "bed": 4776,
      "fd": 4777,
      "}\\": 4778,
      "Ġtor": 4779,
      "Ġcb": 4780,
      "Ġvo": 4781,
      "Ġuid": 4782,
      "apply": 4783,
      "Ġsubclass": 4784,
      "aves": 4785,
      "days": 4786,
      "success": 4787,
      "Ġdecorated": 4788,
      "Ġconstant": 4789,
      "čĊĠĠĠĠĠĠĠĠĠĠĠĠĠĠĠ": 4790,
      "Ġfptr": 4791,
      "dec": 4792,
      "ĠTw": 4793,
      "this": 4794,
      "Ġ\",": 4795,
      "Ġlater": 4796,
      "Ġlogg": 4797,
      "ĠOver": 4798,
      "fast": 4799,
      "platform": 4800,
      "tasks": 4801,
      "ConnectionError": 4802,
      "Build": 4803,
      "View": 4804,
      "echo": 4805,
      "pers": 4806,
      "ines": 4807,
      "Ġspe": 4808,
      "Ġdriver": 4809,
      "Ġgot": 4810,
      "Ġhy": 4811,
      "ĠFir": 4812,
      "database": 4813,
      "Ġconfigure": 4814,
      "__.": 4815,
      "Ġimg": 4816,
      "Ġverify": 4817,
      "iteral": 4818,
      "Arg": 4819,
      "vidual": 4820,
      "ĠConverts": 4821,
      "Ġexecuted": 4822,
      "ĠValidate": 4823,
      "enum": 4824,
      "Ġdrop": 4825,
      "Ġconsumer": 4826,
      "Ġproxy": 4827,
      "DS": 4828,
      "uses": 4829,
      "wire": 4830,
      "Ġdec": 4831,
      "otst": 4832,
      "Ġjav": 4833,
      "Ġbook": 4834,
      "Ġentire": 4835,
      "quired": 4836,
      "Ġsubject": 4837,
      "Ġvalidator": 4838,
      "TPUT": 4839,
      "cached": 4840,
      "escape": 4841,
      "As": 4842,
      "dr": 4843,
      "Ġfname": 4844,
      "Ġ15": 4845,
      "prob": 4846,
      "Ġround": 4847,
      "Ġ60": 4848,
      "Ġscalar": 4849,
      "Ġowner": 4850,
      "www": 4851,
      "84": 4852,
      "aff": 4853,
      "brain": 4854,
      "fg": 4855,
      "whe": 4856,
      "Ġgradient": 4857,
      "ationError": 4858,
      "Ġbehavi": 4859,
      "Ġmetrics": 4860,
      "ĠGo": 4861,
      "Ġcreates": 4862,
      "runk": 4863,
      "Ġtrimesh": 4864,
      "Ġboundary": 4865,
      "=%": 4866,
      "Ġstanza": 4867,
      "ĠSQL": 4868,
      "Ġasyncio": 4869,
      "ranches": 4870,
      "hich": 4871,
      "Ġoperations": 4872,
      "ĠAddress": 4873,
      "ĠDataset": 4874,
      "topic": 4875,
      "extract": 4876,
      "Ġimmediately": 4877,
      "umulative": 4878,
      "bundle": 4879,
      "mux": 4880,
      "xim": 4881,
      "Ġconversion": 4882,
      "usage": 4883,
      "Ġcalculation": 4884,
      "Address": 4885,
      "ools": 4886,
      "px": 4887,
      "ĠQuery": 4888,
      "Ġrepository": 4889,
      "Ġnone": 4890,
      "ĠST": 4891,
      "empts": 4892,
      "Ġaltern": 4893,
      "\"]:": 4894,
      "Ġ//": 4895,
      "Ġworksheet": 4896,
      "Ġcreating": 4897,
      "sider": 4898,
      "Produce": 4899,
      "Ġcases": 4900,
      "POINT": 4901,
      "Ġpriority": 4902,
      "Cache": 4903,
      "FT": 4904,
      "Size": 4905,
      "Ġsat": 4906,
      "Ġsong": 4907,
      "Ġ'',": 4908,
      "Ġ[],": 4909,
      "setdefault": 4910,
      "ĠMV": 4911,
      "lemented": 4912,
      "arguments": 4913,
      "Ġpositions": 4914,
      "Ġsimilar": 4915,
      "second": 4916,
      ".'.": 4917,
      "PATH": 4918,
      "Queue": 4919,
      "states": 4920,
      "arm": 4921,
      "aging": 4922,
      "uman": 4923,
      "oll": 4924,
      "vec": 4925,
      "ĠPub": 4926,
      "ĠCurrent": 4927,
      "tile": 4928,
      "Ġnever": 4929,
      "Ġperformed": 4930,
      "single": 4931,
      "imple": 4932,
      "Ġactually": 4933,
      "VI": 4934,
      "Ġray": 4935,
      "Ġpin": 4936,
      "logging": 4937,
      "amma": 4938,
      "()[": 4939,
      "ĠSo": 4940,
      "Ġarr": 4941,
      "Ġhelper": 4942,
      "Ġsubset": 4943,
      "ĠDelete": 4944,
      "Ġpositive": 4945,
      "operation": 4946,
      "retry": 4947,
      "Ġmix": 4948,
      "agraph": 4949,
      "ĠPrint": 4950,
      "ailure": 4951,
      "ATA": 4952,
      "istration": 4953,
      "repr": 4954,
      "uess": 4955,
      "Ġdue": 4956,
      "Ġsegments": 4957,
      "okies": 4958,
      "ogle": 4959,
      "Ġlinks": 4960,
      "Device": 4961,
      "Ġcertificate": 4962,
      "Ġadjac": 4963,
      "Ġmetabol": 4964,
      "Ġcir": 4965,
      "Ġcriteria": 4966,
      "unce": 4967,
      "Ġordered": 4968,
      "','": 4969,
      "theta": 4970,
      "He": 4971,
      "mar": 4972,
      "arange": 4973,
      "anis": 4974,
      "Ġstderr": 4975,
      "ĠPass": 4976,
      "Ġener": 4977,
      "\").": 4978,
      "Ġatom": 4979,
      "quire": 4980,
      "ĠYields": 4981,
      "gu": 4982,
      "ored": 4983,
      "pred": 4984,
      "sleep": 4985,
      "see": 4986,
      "members": 4987,
      "Ġrelevant": 4988,
      "entities": 4989,
      "ssl": 4990,
      ")).": 4991,
      "pores": 4992,
      "ĠNetwork": 4993,
      "Ġoutputs": 4994,
      "Ġworkspace": 4995,
      "Ġbackground": 4996,
      "Ġobs": 4997,
      "Ġframes": 4998,
      "permissions": 4999,
      "dimensional": 5000,
      "sage": 5001,
      "Ġreactions": 5002,
      "park": 5003,
      "partial": 5004,
      "Ġconstraints": 5005,
      "olds": 5006,
      "ube": 5007,
      "isting": 5008,
      "Ġbuf": 5009,
      "Ġsimply": 5010,
      ".\",": 5011,
      "DO": 5012,
      "Retri": 5013,
      "arest": 5014,
      "ij": 5015,
      "skip": 5016,
      "Ġwind": 5017,
      "Ġwire": 5018,
      "Ġdat": 5019,
      "Ġrank": 5020,
      "ĠDescription": 5021,
      ":`.": 5022,
      "oked": 5023,
      "dirs": 5024,
      "ĠDevice": 5025,
      "Ġmaterial": 5026,
      "Ġprovides": 5027,
      "ĠChecks": 5028,
      "Ġneighbors": 5029,
      "96": 5030,
      "Tri": 5031,
      "ZE": 5032,
      "uff": 5033,
      "arto": 5034,
      "ĠAtt": 5035,
      "mooth": 5036,
      "ĠProduces": 5037,
      "Color": 5038,
      "Ġassumed": 5039,
      "Ġequivalent": 5040,
      "condition": 5041,
      "Find": 5042,
      "PN": 5043,
      "tension": 5044,
      "alf": 5045,
      "alg": 5046,
      "Ġful": 5047,
      "unch": 5048,
      "ĠTuple": 5049,
      "Ġidentity": 5050,
      "rency": 5051,
      "sock": 5052,
      "library": 5053,
      "+)": 5054,
      "EC": 5055,
      "cd": 5056,
      "invalid": 5057,
      "static": 5058,
      "Ġpur": 5059,
      "ĠThere": 5060,
      "plan": 5061,
      "ĠĠĠĠĠĠĠĠĠĠĠĠĠĠĠĠĠĠĠĠĠĠĠĠĠ": 5062,
      "variables": 5063,
      "ĠUnicode": 5064,
      "eam": 5065,
      "history": 5066,
      "}}": 5067,
      "Ġwildcard": 5068,
      "Ġdid": 5069,
      "ĠDec": 5070,
      "ongo": 5071,
      "Ġidentifiers": 5072,
      "aa": 5073,
      "ula": 5074,
      "Ġ[])": 5075,
      "Ġfilepath": 5076,
      "ORT": 5077,
      "refs": 5078,
      "itespace": 5079,
      "ĠResponse": 5080,
      "ĊĊĠĠĠĠĠĠĠĠ": 5081,
      "oring": 5082,
      "Ġbrain": 5083,
      "Ġ'--": 5084,
      "ĠSupported": 5085,
      "Ġhandlers": 5086,
      "sence": 5087,
      "dependencies": 5088,
      "Method": 5089,
      "grees": 5090,
      "MQ": 5091,
      "rb": 5092,
      "ral": 5093,
      "zen": 5094,
      "ining": 5095,
      "onal": 5096,
      "Ġfree": 5097,
      "ĠApp": 5098,
      "()]": 5099,
      "Ġdigits": 5100,
      "popt": 5101,
      "ĠRetrieves": 5102,
      "Att": 5103,
      "LS": 5104,
      "SU": 5105,
      "tect": 5106,
      "way": 5107,
      "agg": 5108,
      "ĠAb": 5109,
      "Ġhead": 5110,
      "Ġcompletion": 5111,
      "Reference": 5112,
      "logy": 5113,
      "Ġoccurs": 5114,
      "ĠAccount": 5115,
      "Ġstd": 5116,
      "Ġcopied": 5117,
      "digest": 5118,
      "Ġunpack": 5119,
      "ipap": 5120,
      "Ġstarted": 5121,
      "INPUT": 5122,
      "{}\".": 5123,
      "handlers": 5124,
      "Ġspan": 5125,
      "Channel": 5126,
      ".',": 5127,
      "END": 5128,
      "Mem": 5129,
      "Ġcast": 5130,
      "amq": 5131,
      "ĠSy": 5132,
      "ttl": 5133,
      "Load": 5134,
      "dump": 5135,
      "equal": 5136,
      "lan": 5137,
      "Ġci": 5138,
      "met": 5139,
      "ams": 5140,
      "ĠPoint": 5141,
      "quote": 5142,
      "cipher": 5143,
      "ĠMap": 5144,
      "Ġsha": 5145,
      "Ġindexes": 5146,
      "rowser": 5147,
      "Ġobtain": 5148,
      "categories": 5149,
      "}\"": 5150,
      "atched": 5151,
      "Ġssl": 5152,
      "union": 5153,
      "ĠClient": 5154,
      "Ġcheckpoint": 5155,
      "subscription": 5156,
      "partment": 5157,
      "annotation": 5158,
      "23": 5159,
      "FORM": 5160,
      "IG": 5161,
      "Of": 5162,
      "mk": 5163,
      "xso": 5164,
      "cel": 5165,
      "Ġeas": 5166,
      "Ġdelay": 5167,
      "example": 5168,
      "ably": 5169,
      "ifier": 5170,
      "pending": 5171,
      "summary": 5172,
      "lask": 5173,
      "ĊĠĠĠĠĠĠĠĠĠĠĠĠĠĠĠĠĠĠĠĠĠĠĠĠĠĠĠĠĠĠĠĠĠĠĠĠĠĠĠĠĠĠĠ": 5174,
      "span": 5175,
      "*(": 5176,
      "lang": 5177,
      "pg": 5178,
      "Ġio": 5179,
      "Ġopt": 5180,
      "ĠTarget": 5181,
      "Ġ\"-": 5182,
      "Ġlisten": 5183,
      "ĠMult": 5184,
      "axes": 5185,
      "transl": 5186,
      "best": 5187,
      "markup": 5188,
      "Ġphone": 5189,
      "Ġhopopt": 5190,
      "Send": 5191,
      "drop": 5192,
      "mens": 5193,
      "wrapper": 5194,
      "Ġfriendly": 5195,
      "ĠTab": 5196,
      "iling": 5197,
      "ĠFetch": 5198,
      "ryption": 5199,
      "ivation": 5200,
      "Ġlet": 5201,
      "interface": 5202,
      "Ġprojection": 5203,
      "Ġphase": 5204,
      "Ġcollections": 5205,
      "RFC": 5206,
      "Ġwrapped": 5207,
      "otstrap": 5208,
      "rd": 5209,
      "Ġ).": 5210,
      "Ġtheta": 5211,
      "Ġrecent": 5212,
      "Ġexchange": 5213,
      "ĠDB": 5214,
      "sole": 5215,
      "compress": 5216,
      "Ġoperator": 5217,
      "anaged": 5218,
      "relation": 5219,
      "Ġdatasets": 5220,
      "coordin": 5221,
      "256": 5222,
      "normalize": 5223,
      "Ġextensions": 5224,
      "origin": 5225,
      "Ġrecursive": 5226,
      "ĠMaximum": 5227,
      "Dir": 5228,
      "OS": 5229,
      "retri": 5230,
      "Ġpending": 5231,
      "hood": 5232,
      "Reader": 5233,
      "Storage": 5234,
      "Ġcountry": 5235,
      "direction": 5236,
      "interval": 5237,
      "correct": 5238,
      "TED": 5239,
      "Ġwhole": 5240,
      "stitution": 5241,
      "pin": 5242,
      "Ġrep": 5243,
      "Ġsolver": 5244,
      "Ġduration": 5245,
      "Ġcolour": 5246,
      "Ġconfi": 5247,
      "dims": 5248,
      "verify": 5249,
      "resp": 5250,
      "Ġratio": 5251,
      "Ġunless": 5252,
      "Ġpay": 5253,
      "\"].": 5254,
      "Ġstarts": 5255,
      "contents": 5256,
      "Ġfilenames": 5257,
      "alyses": 5258,
      "ĠRemoves": 5259,
      "ĠOSError": 5260,
      "cce": 5261,
      "nitude": 5262,
      "tz": 5263,
      "xn": 5264,
      "separ": 5265,
      "Ġadata": 5266,
      "Ġclear": 5267,
      "ĠImage": 5268,
      "abridge": 5269,
      "Ġarbit": 5270,
      "ĠNode": 5271,
      "countered": 5272,
      "Ġmatplotlib": 5273,
      "MM": 5274,
      "_:": 5275,
      "mut": 5276,
      "ĊĊĊĠĠĠ": 5277,
      "Ġ))": 5278,
      "sect": 5279,
      "alpha": 5280,
      "Ġ'<": 5281,
      "ĠHMC": 5282,
      "Ġquot": 5283,
      "fixed": 5284,
      "Ġserialize": 5285,
      "bro": 5286,
      "bits": 5287,
      "font": 5288,
      "utc": 5289,
      "Ġdevices": 5290,
      "Ġdefer": 5291,
      "keyword": 5292,
      "Ġfiltered": 5293,
      "Ġmodifi": 5294,
      "Ġtables": 5295,
      "Ġindividual": 5296,
      "component": 5297,
      "Ġrouting": 5298,
      "Ġderived": 5299,
      "90": 5300,
      "FC": 5301,
      "Sy": 5302,
      "aplo": 5303,
      "Ġlon": 5304,
      "filepath": 5305,
      "pixel": 5306,
      "Ġworkunit": 5307,
      "Ġcreation": 5308,
      "Ġthroats": 5309,
      "Ġcompar": 5310,
      "Ġspecifying": 5311,
      "abspath": 5312,
      "sqrt": 5313,
      "mid": 5314,
      "win": 5315,
      "zoom": 5316,
      "Ġâ": 5317,
      "segments": 5318,
      "alet": 5319,
      "cos": 5320,
      "velo": 5321,
      "ĠClass": 5322,
      "Ġones": 5323,
      "Ġprev": 5324,
      "ĠIDs": 5325,
      "nounce": 5326,
      "blocks": 5327,
      "Ġreceiver": 5328,
      "AX": 5329,
      "mon": 5330,
      "pst": 5331,
      "atches": 5332,
      "Ġnull": 5333,
      "Ġscores": 5334,
      "roid": 5335,
      "Ġdefine": 5336,
      "power": 5337,
      "isters": 5338,
      "Ġunknown": 5339,
      "Ġcompile": 5340,
      "Ġcompleted": 5341,
      "most": 5342,
      "mbols": 5343,
      "ĠXXX": 5344,
      "media": 5345,
      "Ġ50": 5346,
      "Ġtriangle": 5347,
      "Ġresolved": 5348,
      "ROR": 5349,
      "cure": 5350,
      "ropy": 5351,
      "Ġwallet": 5352,
      "Ġprops": 5353,
      "ĠOR": 5354,
      "ĠBlock": 5355,
      "Ġwaiting": 5356,
      "Ġterms": 5357,
      "Ġmedia": 5358,
      "ĠContent": 5359,
      "aken": 5360,
      "pc": 5361,
      "rong": 5362,
      "Ġturn": 5363,
      "Ġwx": 5364,
      "Ġseen": 5365,
      "ĠLV": 5366,
      "lineno": 5367,
      "Ġmodify": 5368,
      "Ġreceive": 5369,
      "Ġsimulation": 5370,
      "Ġgene": 5371,
      "Sample": 5372,
      "gt": 5373,
      "tail": 5374,
      "Ġrepe": 5375,
      "Ġrepr": 5376,
      "ĠDate": 5377,
      "ĠUsed": 5378,
      "ĠVari": 5379,
      "Ġcomputation": 5380,
      "regex": 5381,
      "Could": 5382,
      "structure": 5383,
      "marker": 5384,
      "COL": 5385,
      "Ġfraction": 5386,
      "bad": 5387,
      "mq": 5388,
      "alan": 5389,
      "Ġcrypt": 5390,
      "Ġmx": 5391,
      "ĠTry": 5392,
      "ĠInt": 5393,
      "Ġchunks": 5394,
      "Ġspecimen": 5395,
      "phone": 5396,
      "Ġlogic": 5397,
      "cular": 5398,
      "running": 5399,
      "Ġassignment": 5400,
      "semble": 5401,
      "-%": 5402,
      "Cannot": 5403,
      "atom": 5404,
      "ittle": 5405,
      "ĠTemp": 5406,
      "Ġthresh": 5407,
      "Ġdim": 5408,
      "ĠCode": 5409,
      "rank": 5410,
      "Ġprevent": 5411,
      "ports": 5412,
      "Ġspecifies": 5413,
      "compute": 5414,
      "uplicate": 5415,
      "Calculate": 5416,
      ":])": 5417,
      "did": 5418,
      "fc": 5419,
      "internal": 5420,
      "letes": 5421,
      "Ġinher": 5422,
      "Ġsql": 5423,
      "Ġshift": 5424,
      "eta": 5425,
      "ĠTakes": 5426,
      "adcast": 5427,
      "chat": 5428,
      "Ġorient": 5429,
      "serve": 5430,
      "Ġmet": 5431,
      "ĠConnection": 5432,
      "grade": 5433,
      "ĠĠĠĠĠĠĠĠĠĠĠĠĠĠĠĠĠĠĠĠĠĠĠĠĠĠĠĠĠĠĠĠĠĠĠĠĠĠĠĠĠĠĠĠĠĠĠĠĠĠĠĠĠĠĠĠĠĠĠĠĠĠ": 5434,
      "17": 5435,
      "Vari": 5436,
      "ssian": 5437,
      "Ġanchor": 5438,
      "div": 5439,
      "Ġreferenced": 5440,
      "channels": 5441,
      "antiate": 5442,
      "ĠConstructs": 5443,
      "Cur": 5444,
      "wb": 5445,
      "world": 5446,
      "ĠĠĠĠĠĠĠĠĠĠĠĠĠ": 5447,
      "cepts": 5448,
      "Ġvery": 5449,
      "ands": 5450,
      "Ġlogs": 5451,
      "Ġ*,": 5452,
      "timeseries": 5453,
      "urls": 5454,
      "Ġqueries": 5455,
      "____": 5456,
      "Ġoptionally": 5457,
      "Ġcoroutine": 5458,
      "ocument": 5459,
      "ĠReads": 5460,
      "Ġcompatibility": 5461,
      "Part": 5462,
      "cancel": 5463,
      "eval": 5464,
      "free": 5465,
      "Ġconv": 5466,
      "conn": 5467,
      "posed": 5468,
      "mass": 5469,
      "ĠGit": 5470,
      "Ġ<<": 5471,
      "note": 5472,
      "scriptor": 5473,
      "Ġdifference": 5474,
      "UR": 5475,
      "ife": 5476,
      "Ġeig": 5477,
      "cogn": 5478,
      "ĠStop": 5479,
      "Ġasynchronous": 5480,
      "ĠFl": 5481,
      "peration": 5482,
      "(\"-": 5483,
      "ĠLanguage": 5484,
      "Ġadds": 5485,
      "pipe": 5486,
      "Ġiterations": 5487,
      "ĠProperty": 5488,
      "temperature": 5489,
      "ACE": 5490,
      "cheduler": 5491,
      "clusive": 5492,
      ".+": 5493,
      "done": 5494,
      "Ġcategories": 5495,
      "ann": 5496,
      "parsed": 5497,
      "Ġsens": 5498,
      "emon": 5499,
      "perties": 5500,
      "ĠReferences": 5501,
      "INE": 5502,
      "Ġqueryset": 5503,
      "Ġhandling": 5504,
      "Ġtriangles": 5505,
      "Ġ-------------": 5506,
      "Ġenergy": 5507,
      ".\\": 5508,
      "70": 5509,
      "Aut": 5510,
      "Bad": 5511,
      "ado": 5512,
      "asset": 5513,
      "datasets": 5514,
      "ĠOP": 5515,
      "ĠMin": 5516,
      "ggest": 5517,
      "feature": 5518,
      "([[": 5519,
      "assistant": 5520,
      "Ġexpressions": 5521,
      "Ġcapt": 5522,
      "alette": 5523,
      "=',": 5524,
      "Pa": 5525,
      "ĠError": 5526,
      "orth": 5527,
      "Ġdump": 5528,
      "ĠSD": 5529,
      "modified": 5530,
      "ĠArray": 5531,
      "Ġmatched": 5532,
      "requests": 5533,
      "Ġportal": 5534,
      "Ġsigma": 5535,
      "criteria": 5536,
      "}]": 5537,
      "inv": 5538,
      "ĠAR": 5539,
      "tep": 5540,
      "failed": 5541,
      "configure": 5542,
      "ĠCommand": 5543,
      "Ġtrigg": 5544,
      "Ġtrigger": 5545,
      "ĠQt": 5546,
      "definition": 5547,
      "multi": 5548,
      "Ġsvc": 5549,
      "LL": 5550,
      "pd": 5551,
      "tas": 5552,
      "Ġbin": 5553,
      "ĠCO": 5554,
      "Ġmachine": 5555,
      "ĠEnd": 5556,
      "imit": 5557,
      "classpath": 5558,
      "Container": 5559,
      "{})": 5560,
      "Ġrelations": 5561,
      "private": 5562,
      "Ġlayout": 5563,
      "allel": 5564,
      "#``": 5565,
      "dle": 5566,
      "reason": 5567,
      "Ġpr": 5568,
      "Ġpad": 5569,
      "cover": 5570,
      "Ġseed": 5571,
      "Ġconvent": 5572,
      "Ġ24": 5573,
      "lens": 5574,
      "compat": 5575,
      "ĊĠĠĠĠĠĠĠĠĠĠĠĠĠĠĠĠĠĠĠĠĠĠĠĠĠĠĠĠĠĠĠĠĠĠĠĠĠĠĠĠĠĠĠĠ": 5576,
      "SIZE": 5577,
      "symbol": 5578,
      "Ġjavabridge": 5579,
      "Ġfully": 5580,
      "Source": 5581,
      "oolean": 5582,
      "ĊĊĠĠĠĠĠĠĠĠĠĠ": 5583,
      "Ġcard": 5584,
      "Ġcfg": 5585,
      "roy": 5586,
      "ract": 5587,
      "Ġthree": 5588,
      "Ġorg": 5589,
      "Ġlv": 5590,
      "Ġprocesses": 5591,
      "period": 5592,
      "home": 5593,
      "notification": 5594,
      "Ġpeer": 5595,
      "adapter": 5596,
      "pkg": 5597,
      "supported": 5598,
      "rip": 5599,
      "Ġconn": 5600,
      "poch": 5601,
      "Ġadmin": 5602,
      "taskrouter": 5603,
      "ĠKeyword": 5604,
      "Ġobservation": 5605,
      "Ġcert": 5606,
      "92": 5607,
      ":\\": 5608,
      "Vector": 5609,
      "reated": 5610,
      "Ġpkg": 5611,
      "anor": 5612,
      "Ġmv": 5613,
      "Ġvocab": 5614,
      "Ġgives": 5615,
      "integer": 5616,
      "emu": 5617,
      "boolean": 5618,
      "render": 5619,
      "feed": 5620,
      "Ġimported": 5621,
      "HEAD": 5622,
      "EM": 5623,
      "glyph": 5624,
      "kernel": 5625,
      "Ġbra": 5626,
      "lig": 5627,
      "lip": 5628,
      "ĠSc": 5629,
      "ĠSpeci": 5630,
      "Ġadding": 5631,
      "ĠContext": 5632,
      "ĠSearch": 5633,
      "Ġhostname": 5634,
      "catalog": 5635,
      "Ġslots": 5636,
      "wards": 5637,
      "Mark": 5638,
      "hidden": 5639,
      "Ġbus": 5640,
      "Ġstatistics": 5641,
      "Ġthrow": 5642,
      "Ġconsider": 5643,
      "expi": 5644,
      "ĠPart": 5645,
      "ĠStri": 5646,
      "Ġengine": 5647,
      "Ġencountered": 5648,
      "Ġaddresses": 5649,
      "Ġready": 5650,
      "require": 5651,
      "ĠDEFAULT": 5652,
      "Ġinterpolation": 5653,
      "40": 5654,
      "Open": 5655,
      "widget": 5656,
      "Ġfd": 5657,
      "Ġsites": 5658,
      "cookie": 5659,
      "pyr": 5660,
      "Ġoverlap": 5661,
      "Ġcodes": 5662,
      "duction": 5663,
      "commands": 5664,
      "Ġsending": 5665,
      "Ġspecs": 5666,
      "Ġadjust": 5667,
      "Ġfoo": 5668,
      "Mo": 5669,
      "tw": 5670,
      "uer": 5671,
      "Ġtaken": 5672,
      "reen": 5673,
      "Ġspa": 5674,
      "ĠTable": 5675,
      "ĠShould": 5676,
      "Ġart": 5677,
      "allback": 5678,
      "indexes": 5679,
      "Ġgeneration": 5680,
      "hostname": 5681,
      "TIONS": 5682,
      "ĠOpenPN": 5683,
      "ticipant": 5684,
      "ĠOpenPNM": 5685,
      "=['": 5686,
      "Ad": 5687,
      "Filter": 5688,
      "Ġsparse": 5689,
      "Ġreading": 5690,
      "Parses": 5691,
      "price": 5692,
      "relative": 5693,
      "ĠGenerates": 5694,
      "Options": 5695,
      "Ġseparate": 5696,
      "Ġfragment": 5697,
      "Ġequation": 5698,
      "Ġexplicitly": 5699,
      "Ac": 5700,
      "PU": 5701,
      "Ph": 5702,
      "RA": 5703,
      "]])": 5704,
      "uped": 5705,
      "ucle": 5706,
      "rer": 5707,
      "Ġibis": 5708,
      "delay": 5709,
      "Ġinner": 5710,
      "identity": 5711,
      "ĠText": 5712,
      "illi": 5713,
      "Ġlistener": 5714,
      "preview": 5715,
      "soft": 5716,
      "Ġsucce": 5717,
      "Defin": 5718,
      "Ġiteration": 5719,
      "Ġmapreduce": 5720,
      "Implemented": 5721,
      "Ġallel": 5722,
      ")\"": 5723,
      "uint": 5724,
      "inf": 5725,
      "asis": 5726,
      "Ġhistory": 5727,
      "ĠPlot": 5728,
      "ĠAdditional": 5729,
      "frames": 5730,
      "rupt": 5731,
      "png": 5732,
      "ĠTrimesh": 5733,
      "CF": 5734,
      "Fe": 5735,
      "bus": 5736,
      "hist": 5737,
      "rep": 5738,
      "Ġreached": 5739,
      "Ġdev": 5740,
      "Ġ':": 5741,
      "Ġsep": 5742,
      "Ġalt": 5743,
      "Ġcols": 5744,
      "Ġxy": 5745,
      "Ġsubmit": 5746,
      "Ġlight": 5747,
      "users": 5748,
      "Ġfiltering": 5749,
      "olders": 5750,
      "ĠOptions": 5751,
      "Ġcoords": 5752,
      "ika": 5753,
      "multiple": 5754,
      "Ġmakes": 5755,
      "amqp": 5756,
      "ifest": 5757,
      "duration": 5758,
      "effect": 5759,
      "čĊ": 5760,
      "Ġscreen": 5761,
      "Ġbeco": 5762,
      "Ġ{},": 5763,
      "__[": 5764,
      "Ġanything": 5765,
      "logical": 5766,
      "Ġmultip": 5767,
      "Ġhasher": 5768,
      "ĠDetermine": 5769,
      "!')": 5770,
      "Schema": 5771,
      "rv": 5772,
      "sm": 5773,
      "alty": 5774,
      "Ġps": 5775,
      "ctets": 5776,
      "utable": 5777,
      "Ġdegrees": 5778,
      "otide": 5779,
      "Ġcore": 5780,
      "Ġroles": 5781,
      "bolic": 5782,
      "ĠWire": 5783,
      "ĠInter": 5784,
      "Statistics": 5785,
      "Ġentities": 5786,
      "Ġtransformed": 5787,
      "Ġpeak": 5788,
      ",,,,": 5789,
      "Ġtranslation": 5790,
      "Ġclaim": 5791,
      "ucleotide": 5792,
      ")])": 5793,
      "/'": 5794,
      "CL": 5795,
      "Network": 5796,
      "Widget": 5797,
      "pu": 5798,
      "Ġfut": 5799,
      "Ġunion": 5800,
      "Ġdoct": 5801,
      "ĠBad": 5802,
      "\"][\"": 5803,
      "ORY": 5804,
      "packet": 5805,
      "Ġdocstring": 5806,
      "Ġcallbacks": 5807,
      "ĠUnion": 5808,
      "ACK": 5809,
      "DateTime": 5810,
      "'},": 5811,
      "PY": 5812,
      "walk": 5813,
      "upload": 5814,
      "Ġexperiment": 5815,
      "Ġrather": 5816,
      "appings": 5817,
      "ĠMe": 5818,
      "ĊĠĠĠĠĠĠĠĠĠĠĠĠĠĠĠĠĠĠĠĠĠĠĠĠĠĠĠĠĠĠĠĠĠĠĠĠĠĠĠĠĠ": 5819,
      "Ġcomments": 5820,
      "publish": 5821,
      "Ġvisual": 5822,
      "ĠStructure": 5823,
      "ĠFILE": 5824,
      "Ġvoice": 5825,
      "DA": 5826,
      "ENT": 5827,
      "XT": 5828,
      "push": 5829,
      "urs": 5830,
      "itation": 5831,
      "iso": 5832,
      "iguous": 5833,
      "master": 5834,
      "epcopy": 5835,
      "Ġreplacement": 5836,
      "MAX": 5837,
      "Ġconflict": 5838,
      "Ġidentify": 5839,
      "Ġhappen": 5840,
      "SY": 5841,
      "future": 5842,
      "atar": 5843,
      "ĠAut": 5844,
      "ĠSample": 5845,
      "Ġpartial": 5846,
      "ĠEnt": 5847,
      "images": 5848,
      "ĠOutput": 5849,
      "ĠGET": 5850,
      "Ġpredicate": 5851,
      "ĠDoes": 5852,
      "Remove": 5853,
      "ĠFirst": 5854,
      ")'": 5855,
      "Empty": 5856,
      "Temp": 5857,
      "orator": 5858,
      "devices": 5859,
      "urther": 5860,
      "rouped": 5861,
      "Ġ[{": 5862,
      "ĠDID": 5863,
      "Ġmajor": 5864,
      "cluded": 5865,
      "ERROR": 5866,
      "Ġplan": 5867,
      "closed": 5868,
      "OUTPUT": 5869,
      "cheduling": 5870,
      "claration": 5871,
      "Ġam": 5872,
      "stand": 5873,
      "Ġefficient": 5874,
      "isfile": 5875,
      "Ġguess": 5876,
      "']))": 5877,
      "shared": 5878,
      "cale": 5879,
      "geo": 5880,
      "Ġapplic": 5881,
      "flush": 5882,
      "Ġimplemented": 5883,
      "Ġcipher": 5884,
      "DD": 5885,
      "Ġblob": 5886,
      "Ġdecoded": 5887,
      "changes": 5888,
      "ĠCPC": 5889,
      "usters": 5890,
      "addresses": 5891,
      "Ġnearest": 5892,
      "__(": 5893,
      "Ġcommun": 5894,
      "download": 5895,
      "Ġchannels": 5896,
      "TER": 5897,
      "stat": 5898,
      "measure": 5899,
      "ĠAd": 5900,
      "diag": 5901,
      "\",\"": 5902,
      "ĠMed": 5903,
      "Ġdouble": 5904,
      "Ġ{})": 5905,
      "stripe": 5906,
      "ORD": 5907,
      "Resource": 5908,
      "fully": 5909,
      "voke": 5910,
      "Ġstrict": 5911,
      "ĠColor": 5912,
      "clared": 5913,
      "PER": 5914,
      "nado": 5915,
      "sw": 5916,
      "ulk": 5917,
      "ric": 5918,
      "Ġdiag": 5919,
      "__.__": 5920,
      "activity": 5921,
      "INFO": 5922,
      "Ġdisabled": 5923,
      "Ġpassing": 5924,
      "Ġordering": 5925,
      "Ġflatten": 5926,
      "Ġexecutor": 5927,
      "Ġconditions": 5928,
      "Ġdetermined": 5929,
      "36": 5930,
      "39": 5931,
      "Action": 5932,
      "Label": 5933,
      "actor": 5934,
      "cryption": 5935,
      "hy": 5936,
      "hat": 5937,
      "ality": 5938,
      "Ġcut": 5939,
      "rozen": 5940,
      "Ġdx": 5941,
      "Ġconver": 5942,
      "gether": 5943,
      "consumer": 5944,
      "Ġnumeric": 5945,
      "ĠBe": 5946,
      "Ġquote": 5947,
      "StoreID": 5948,
      "Ġevaluate": 5949,
      "Ġinvoked": 5950,
      "(',": 5951,
      "27": 5952,
      "IS": 5953,
      "TC": 5954,
      "WN": 5955,
      "orization": 5956,
      "environment": 5957,
      "Ġmd": 5958,
      "resolve": 5959,
      "progress": 5960,
      "Ġoutside": 5961,
      "ĠBits": 5962,
      "Ġcoral": 5963,
      "Ġlocale": 5964,
      "Ġexpanded": 5965,
      "Ab": 5966,
      "BA": 5967,
      "Hub": 5968,
      "Output": 5969,
      "freq": 5970,
      "wiki": 5971,
      "Ġer": 5972,
      "oriz": 5973,
      "Ġ'__": 5974,
      "Ġvrf": 5975,
      "rie": 5976,
      "updated": 5977,
      "Ġhuman": 5978,
      "ised": 5979,
      "Ġsetattr": 5980,
      "rites": 5981,
      "ĠVRF": 5982,
      "some": 5983,
      "RES": 5984,
      "packages": 5985,
      "DESCRIPTION": 5986,
      "cern": 5987,
      "ĠAllow": 5988,
      "Ġlonger": 5989,
      "operator": 5990,
      "aussian": 5991,
      "Ġduplicates": 5992,
      "Python": 5993,
      "Ġadapter": 5994,
      "catenate": 5995,
      "Ġdelimiter": 5996,
      "wheel": 5997,
      "Ġbehavior": 5998,
      "Pool": 5999,
      "ba": 6000,
      "blob": 6001,
      "candid": 6002,
      "jobject": 6003,
      "ĊĊ": 6004,
      "Ġtab": 6005,
      "seek": 6006,
      "Ġprompt": 6007,
      "Ġdjango": 6008,
      "ĠSome": 6009,
      "izers": 6010,
      "submission": 6011,
      "Ġvariants": 6012,
      "Ġprice": 6013,
      "ALL": 6014,
      "Ġsyntax": 6015,
      "audio": 6016,
      "ImplementedError": 6017,
      "ĠMedia": 6018,
      "nb": 6019,
      "uation": 6020,
      "vance": 6021,
      "Ġctypes": 6022,
      "peg": 6023,
      "Ġforward": 6024,
      "Ġexported": 6025,
      "ĠPo": 6026,
      "viation": 6027,
      "Ġrho": 6028,
      "iving": 6029,
      "ampler": 6030,
      "ĠMark": 6031,
      "ĠMAR": 6032,
      "Ġcomplex": 6033,
      "Ġwhitespace": 6034,
      "SCII": 6035,
      "Compute": 6036,
      "={'": 6037,
      "Ġretrieved": 6038,
      "Ġtrunc": 6039,
      ".\".": 6040,
      "08": 6041,
      "BLE": 6042,
      "wn": 6043,
      "aming": 6044,
      "ising": 6045,
      "ĠAMQ": 6046,
      "ĠRGB": 6047,
      "()`": 6048,
      "scan": 6049,
      "....": 6050,
      "shard": 6051,
      "acity": 6052,
      "Ġexpand": 6053,
      "diffe": 6054,
      "'\"": 6055,
      "=\"\"": 6056,
      "rand": 6057,
      "vrf": 6058,
      "Ġ],": 6059,
      "etched": 6060,
      "verbose": 6061,
      "proc": 6062,
      "precation": 6063,
      "='',": 6064,
      "validator": 6065,
      "Ġbetter": 6066,
      "Command": 6067,
      "tables": 6068,
      "Ġbounding": 6069,
      "commun": 6070,
      "Ġconstants": 6071,
      "ĠAMQP": 6072,
      "Ding": 6073,
      "vectors": 6074,
      "station": 6075,
      "Ġcrit": 6076,
      "Ġpred": 6077,
      "Ġden": 6078,
      "Ġdecimal": 6079,
      "ĠTake": 6080,
      "asp": 6081,
      "confi": 6082,
      "screen": 6083,
      "ĠOctets": 6084,
      "ĠLe": 6085,
      "Ġcompare": 6086,
      "Ġrelation": 6087,
      "matches": 6088,
      "Ġmounted": 6089,
      "specimen": 6090,
      "Ġbeginning": 6091,
      "ĠSerializes": 6092,
      "ng": 6093,
      "phi": 6094,
      "wt": 6095,
      "Ġsel": 6096,
      "redirect": 6097,
      "Ġpip": 6098,
      "Ġvm": 6099,
      "vided": 6100,
      "formatted": 6101,
      "ĠEND": 6102,
      "prev": 6103,
      "ĊĠĠĠĠĠĠĠĠĠĠĠĠĠĠĠĠĠĠĠĠĠĠĠĠĠĠĠĠĠĠĠĠĠĠĠĠĠĠĠĠĠĠĠĠĠĠĠĠĠĠĠĠĠĠĠĠ": 6104,
      "ĠReference": 6105,
      "Ġcharset": 6106,
      "irectory": 6107,
      "Ġinitialize": 6108,
      "Ġfinished": 6109,
      "Argument": 6110,
      "QUE": 6111,
      "_)": 6112,
      "ĊĊĠĠĠĠĠĠ": 6113,
      "sections": 6114,
      "hest": 6115,
      "enu": 6116,
      "Ġswitch": 6117,
      "Ġscipy": 6118,
      "constraints": 6119,
      "policy": 6120,
      "Ġlisting": 6121,
      "ĠNA": 6122,
      "ĠNum": 6123,
      "hipping": 6124,
      "Ġenable": 6125,
      "Ġcomputed": 6126,
      "ific": 6127,
      "Ġcalc": 6128,
      "ibly": 6129,
      "Ġsuitable": 6130,
      "Ġpackages": 6131,
      "udit": 6132,
      "genes": 6133,
      "Ġgenerators": 6134,
      "chars": 6135,
      "destination": 6136,
      "Ġrecursively": 6137,
      "PT": 6138,
      "Tab": 6139,
      "ble": 6140,
      "alth": 6141,
      "ĠĠĠĠĠĠĠĠĠĠĠĠĠĠ": 6142,
      "Ġtogether": 6143,
      "Ġvoltage": 6144,
      "ection": 6145,
      "olved": 6146,
      "']]": 6147,
      "Ġcontained": 6148,
      "completion": 6149,
      "Ġzone": 6150,
      "serialized": 6151,
      ")}": 6152,
      "Int": 6153,
      "Missing": 6154,
      "dx": 6155,
      "onical": 6156,
      "urations": 6157,
      "ante": 6158,
      "locate": 6159,
      "Ġgl": 6160,
      "Ġcover": 6161,
      "Ġproduced": 6162,
      "Ġpolicy": 6163,
      "ĠUses": 6164,
      "ĠHIP": 6165,
      "Ġpyemu": 6166,
      "Ġoverrid": 6167,
      "ĠSequence": 6168,
      "Ġdepends": 6169,
      "Ġwhite": 6170,
      "ĠPerform": 6171,
      "ĠNOTE": 6172,
      "Ġbookmark": 6173,
      "CK": 6174,
      "gree": 6175,
      "ifact": 6176,
      "ranges": 6177,
      "Ġpt": 6178,
      "Ġpages": 6179,
      "Ġok": 6180,
      "Ġstation": 6181,
      "Ġgap": 6182,
      "ighest": 6183,
      "proj": 6184,
      "artifact": 6185,
      "methods": 6186,
      "viders": 6187,
      "vocation": 6188,
      "Ġsentence": 6189,
      "ĠCalcul": 6190,
      "Ġcause": 6191,
      "Results": 6192,
      "ĠImportError": 6193,
      "Ġlogged": 6194,
      "'d": 6195,
      "raries": 6196,
      "ono": 6197,
      "standard": 6198,
      "Ġiv": 6199,
      "Ġfingerprint": 6200,
      "Ġcritical": 6201,
      "Ġpag": 6202,
      "course": 6203,
      "ĠSave": 6204,
      "nsure": 6205,
      "linear": 6206,
      "Ġsock": 6207,
      "disable": 6208,
      "Ġmasked": 6209,
      "Ġseparator": 6210,
      "assigned": 6211,
      "DevV": 6212,
      "Ġarbitrary": 6213,
      "aw": 6214,
      "fp": 6215,
      "final": 6216,
      "Ġbins": 6217,
      "Ġwater": 6218,
      "laps": 6219,
      "Ġuuid": 6220,
      "emote": 6221,
      "(':": 6222,
      "ĠLine": 6223,
      "ĠBit": 6224,
      "Ġaddition": 6225,
      "Ġstatements": 6226,
      "ograph": 6227,
      "registry": 6228,
      "shell": 6229,
      "jobs": 6230,
      "Ġkeywords": 6231,
      "Ġprobability": 6232,
      "servations": 6233,
      "Ap": 6234,
      "Pri": 6235,
      "So": 6236,
      "seed": 6237,
      "Ġage": 6238,
      "Ġpush": 6239,
      "Ġgive": 6240,
      "ĠRFC": 6241,
      "quot": 6242,
      "Ġ``'": 6243,
      "Ġjava": 6244,
      "ĠWait": 6245,
      "Ġcurve": 6246,
      "Ġaliases": 6247,
      "Ġgenes": 6248,
      "Ġexecutable": 6249,
      "Ġidentifies": 6250,
      "Ġincrement": 6251,
      "DATA": 6252,
      "NE": 6253,
      "fut": 6254,
      "Ġcamera": 6255,
      "Ġpadding": 6256,
      "Ġspect": 6257,
      "Ġbig": 6258,
      "Ġep": 6259,
      "Ġgets": 6260,
      "Ġhashes": 6261,
      "Extra": 6262,
      "Ġopened": 6263,
      "ĠCount": 6264,
      "Ġedit": 6265,
      "normals": 6266,
      "DIRE": 6267,
      "Ċĉĉĉĉ": 6268,
      "ĠIndexError": 6269,
      "rules": 6270,
      "Ġexactly": 6271,
      "Ed": 6272,
      "qs": 6273,
      "sip": 6274,
      "Ġactions": 6275,
      "Ġfurther": 6276,
      "intext": 6277,
      "img": 6278,
      "inder": 6279,
      "Ġ204": 6280,
      "loader": 6281,
      "plugins": 6282,
      "Ġperm": 6283,
      "Ġtransactions": 6284,
      "subject": 6285,
      "specimens": 6286,
      "ierarch": 6287,
      "cred": 6288,
      "atrix": 6289,
      "alance": 6290,
      "Ġwalk": 6291,
      "Ġrespon": 6292,
      "ĠThen": 6293,
      "Ġencoder": 6294,
      "Ġpredict": 6295,
      "instances": 6296,
      "ibration": 6297,
      "Ġregard": 6298,
      "Ġable": 6299,
      "Ġloading": 6300,
      "PEG": 6301,
      "choice": 6302,
      "Ġgood": 6303,
      "Ġpreviously": 6304,
      "ĠChange": 6305,
      "Ġinserted": 6306,
      "Mult": 6307,
      "which": 6308,
      "Ġpants": 6309,
      "Ġreach": 6310,
      "Ġscheme": 6311,
      "uge": 6312,
      "Ġtransformation": 6313,
      "Extension": 6314,
      "entifiers": 6315,
      "Property": 6316,
      "sually": 6317,
      "Ġwriting": 6318,
      "Ġeverything": 6319,
      "Ġinspector": 6320,
      "Ġinterpreter": 6321,
      "BUG": 6322,
      "(\\": 6323,
      "Pix": 6324,
      "mot": 6325,
      "Ġtas": 6326,
      "metrics": 6327,
      "ention": 6328,
      "Ġmot": 6329,
      "ĠTra": 6330,
      "ride": 6331,
      "ĠAt": 6332,
      "ĠĠĠĠĠĠĠĠĠĠĠĠĠĠĠĠĠĠĠ": 6333,
      "Connect": 6334,
      "arger": 6335,
      "configuration": 6336,
      "ĠStream": 6337,
      "Names": 6338,
      "processor": 6339,
      "locity": 6340,
      "Ġreplaced": 6341,
      "ĠCalled": 6342,
      "Ġthreads": 6343,
      "--------------------------------": 6344,
      "specification": 6345,
      "Ġsmaller": 6346,
      "nouncement": 6347,
      "54": 6348,
      "78": 6349,
      "hs": 6350,
      "reverse": 6351,
      "atcp": 6352,
      "stable": 6353,
      "Ġcare": 6354,
      "Ġspaces": 6355,
      "Ġdynamic": 6356,
      "ently": 6357,
      "loci": 6358,
      "ssible": 6359,
      "isdir": 6360,
      "experiment": 6361,
      "Ġord": 6362,
      "versed": 6363,
      "Ġ\"--": 6364,
      "lists": 6365,
      "izing": 6366,
      "')]": 6367,
      "Ġcontroller": 6368,
      "Ġpretty": 6369,
      "ĠHelper": 6370,
      "pient": 6371,
      "compressed": 6372,
      "rstrip": 6373,
      "ĠJW": 6374,
      "builder": 6375,
      "calls": 6376,
      "GetRow": 6377,
      "ighth": 6378,
      "Ġmapped": 6379,
      "execution": 6380,
      "TYPES": 6381,
      "---------------+": 6382,
      "Mapping": 6383,
      "Pack": 6384,
      "basic": 6385,
      "dy": 6386,
      "vocab": 6387,
      "incip": 6388,
      "ense": 6389,
      "Ġreaction": 6390,
      "Ġbranches": 6391,
      "Ġmime": 6392,
      "assert": 6393,
      "istribution": 6394,
      "major": 6395,
      "Ġquad": 6396,
      "transport": 6397,
      "ĠProject": 6398,
      "Logger": 6399,
      "versal": 6400,
      "ĠMethod": 6401,
      "Level": 6402,
      "Ġlarge": 6403,
      "anoroll": 6404,
      "GetRowValue": 6405,
      "\"'": 6406,
      "End": 6407,
      "aN": 6408,
      "family": 6409,
      "ratio": 6410,
      "Ġradi": 6411,
      "Ġtcp": 6412,
      "Ġaudio": 6413,
      "ench": 6414,
      "Ġcart": 6415,
      "asc": 6416,
      "Ġbeh": 6417,
      "ĠSign": 6418,
      "Ġ{!": 6419,
      "ĠElement": 6420,
      "Ġencrypted": 6421,
      "Ġattached": 6422,
      "achments": 6423,
      "anyarray": 6424,
      "ĠServer": 6425,
      "ĠTransform": 6426,
      "ĠRegister": 6427,
      "receiver": 6428,
      "Order": 6429,
      "Ġappear": 6430,
      "gl": 6431,
      "remo": 6432,
      "Ġrect": 6433,
      "Ġrecur": 6434,
      "Ġsmooth": 6435,
      "Ġmis": 6436,
      "comb": 6437,
      "asses": 6438,
      "asanyarray": 6439,
      "romo": 6440,
      "Ġoutfile": 6441,
      "geom": 6442,
      "numbers": 6443,
      "PEN": 6444,
      "Ġyields": 6445,
      "Ġpercentage": 6446,
      "Ġintegers": 6447,
      "Is": 6448,
      "pad": 6449,
      "sites": 6450,
      "Ġnative": 6451,
      "Ġsl": 6452,
      "Ġ\")": 6453,
      "ĠPlease": 6454,
      "Ġpreferred": 6455,
      "Ġnewly": 6456,
      "phin": 6457,
      "Ġshutil": 6458,
      "ĠGets": 6459,
      "Ġminutes": 6460,
      "hashes": 6461,
      "Ġoverrides": 6462,
      "Permission": 6463,
      "Script": 6464,
      "31": 6465,
      "Ax": 6466,
      "IM": 6467,
      "OF": 6468,
      "UM": 6469,
      "cn": 6470,
      "Ġcampaign": 6471,
      "filer": 6472,
      "Ġhit": 6473,
      "ĠGroup": 6474,
      "Ġchat": 6475,
      "Ġsubstitution": 6476,
      "country": 6477,
      "osite": 6478,
      "Ġappended": 6479,
      "Ġprints": 6480,
      "Ġassum": 6481,
      "Ġrepresented": 6482,
      "Ġparents": 6483,
      "inputs": 6484,
      "Ġframework": 6485,
      "Ġlinked": 6486,
      "Ġapproxim": 6487,
      "Ġannotations": 6488,
      "lapsed": 6489,
      "Ġbroker": 6490,
      "snapshots": 6491,
      "orizon": 6492,
      "If": 6493,
      "Ver": 6494,
      "ires": 6495,
      "zy": 6496,
      "deps": 6497,
      "edit": 6498,
      "licies": 6499,
      "Ġ')": 6500,
      "umin": 6501,
      "thers": 6502,
      "()),": 6503,
      "ĠSY": 6504,
      "Ġresid": 6505,
      "pypsa": 6506,
      "imuth": 6507,
      "ributed": 6508,
      "Ġcompressed": 6509,
      "ĠBoolean": 6510,
      "Ġdfdatetime": 6511,
      "cert": 6512,
      "ĠWeb": 6513,
      "ĠUpdates": 6514,
      "ĠseriesList": 6515,
      "Ġrequirement": 6516,
      "Ġdescribing": 6517,
      "Ġinstruction": 6518,
      "Ġdeferred": 6519,
      "ĠNAME": 6520,
      "Act": 6521,
      "pdf": 6522,
      "shift": 6523,
      "decimal": 6524,
      "Ġcredential": 6525,
      "Ġsli": 6526,
      "peak": 6527,
      "ĠSource": 6528,
      "stry": 6529,
      "previous": 6530,
      "Ġweek": 6531,
      "mitive": 6532,
      "groupby": 6533,
      "Ġtemplates": 6534,
      "crement": 6535,
      "Ġlimits": 6536,
      "ĊĠĠĠĠĠĠĠĠĠĠĠĠĠĠĠĠĠĠĠĠĠĠĠĠĠĠĠĠĠĠĠĠĠĠĠĠĠĠĠĠĠĠ": 6537,
      "Ġcorrectly": 6538,
      "visioner": 6539,
      "Ġinstrument": 6540,
      "orizontal": 6541,
      "information": 6542,
      "Ġsections": 6543,
      "ender": 6544,
      "pay": 6545,
      "Ġendian": 6546,
      "Report": 6547,
      "Ġurllib": 6548,
      "Delete": 6549,
      "Ġboxes": 6550,
      "locations": 6551,
      "ĠDomain": 6552,
      "Ġdescribed": 6553,
      "constants": 6554,
      "anism": 6555,
      "Retrieves": 6556,
      "][\"": 6557,
      "aws": 6558,
      "dl": 6559,
      "fun": 6560,
      "ilot": 6561,
      "schedule": 6562,
      "Ġothers": 6563,
      "agent": 6564,
      "vered": 6565,
      "isted": 6566,
      "Ġonto": 6567,
      "ĠParameter": 6568,
      "song": 6569,
      "contact": 6570,
      "Ġvarious": 6571,
      "Ġspecifications": 6572,
      "Plugin": 6573,
      ".*": 6574,
      "`\")": 6575,
      "critical": 6576,
      "sto": 6577,
      "seline": 6578,
      "Ġnotify": 6579,
      "Ġ\"'": 6580,
      "absolute": 6581,
      "Ġloader": 6582,
      "Ġrtype": 6583,
      "ĠMag": 6584,
      "Rece": 6585,
      "pick": 6586,
      "Ġpypyr": 6587,
      "Ġdiscrete": 6588,
      "Ġreadable": 6589,
      "ĠDataArray": 6590,
      "ĠLook": 6591,
      "Items": 6592,
      "related": 6593,
      "FIG": 6594,
      "Ġseparated": 6595,
      "AAAA": 6596,
      "dicates": 6597,
      "Ġpickle": 6598,
      "Ġdoctest": 6599,
      "(?": 6600,
      "1000": 6601,
      ">,": 6602,
      "bb": 6603,
      "fallback": 6604,
      "ond": 6605,
      "Ġpk": 6606,
      "Ġreduce": 6607,
      "Ġinject": 6608,
      "Ġsever": 6609,
      "ĠRec": 6610,
      "Ġ\"_": 6611,
      "Ġdigest": 6612,
      "Ġprovider": 6613,
      "ĠField": 6614,
      "phab": 6615,
      "relpath": 6616,
      "unknown": 6617,
      "Ġcloud": 6618,
      "Ġdisplayed": 6619,
      "Factory": 6620,
      "warnings": 6621,
      "alancer": 6622,
      "Ġcrypto": 6623,
      "Ali": 6624,
      "bam": 6625,
      "ount": 6626,
      "inel": 6627,
      "Ġpatch": 6628,
      "Ġsync": 6629,
      "cov": 6630,
      "chemy": 6631,
      "Ġwheel": 6632,
      "ĠConnect": 6633,
      "vertex": 6634,
      "Ġnamespaces": 6635,
      "dfs": 6636,
      "ART": 6637,
      "layers": 6638,
      "Ġnormals": 6639,
      "Ġcorrespond": 6640,
      "Ġlooking": 6641,
      "sigma": 6642,
      "details": 6643,
      "Ġmagic": 6644,
      "Ġsender": 6645,
      "66": 6646,
      "AST": 6647,
      "RY": 6648,
      "WD": 6649,
      "Ġcr": 6650,
      "Ġwon": 6651,
      "Ġes": 6652,
      "Ġ\"<": 6653,
      "Ġhierarch": 6654,
      "ĠSB": 6655,
      "tour": 6656,
      "('_": 6657,
      "('.')": 6658,
      "resolution": 6659,
      "opilot": 6660,
      "plane": 6661,
      "Ref": 6662,
      "Ġ30": 6663,
      "west": 6664,
      "################": 6665,
      "ragma": 6666,
      "Definition": 6667,
      ")``": 6668,
      "JSON": 6669,
      "Track": 6670,
      "cup": 6671,
      "cross": 6672,
      "ee": 6673,
      "olic": 6674,
      "sct": 6675,
      "Ġttl": 6676,
      "Ġsi": 6677,
      "lihood": 6678,
      "Ġufo": 6679,
      "ĠDb": 6680,
      "ĠHE": 6681,
      "Extract": 6682,
      "MENT": 6683,
      "Ġloads": 6684,
      "Ġextend": 6685,
      "Identifier": 6686,
      "disk": 6687,
      "dispatch": 6688,
      "Ġsynt": 6689,
      "svg": 6690,
      "Ġaccepted": 6691,
      "Ġallele": 6692,
      "Ġmaking": 6693,
      "ĠAppend": 6694,
      "ĠFIX": 6695,
      "extensions": 6696,
      "HTTPError": 6697,
      ",\"": 6698,
      ">'": 6699,
      "CC": 6700,
      "NING": 6701,
      "PRE": 6702,
      "Vis": 6703,
      "pmag": 6704,
      "patterns": 6705,
      "{\\": 6706,
      "Ġreserved": 6707,
      "Ġsquare": 6708,
      "ĠIII": 6709,
      "Ġhaving": 6710,
      "endpoints": 6711,
      "ĠDNA": 6712,
      "Ġenough": 6713,
      "Ġargparse": 6714,
      "Ġminim": 6715,
      "Ġgrade": 6716,
      "Ġbuckets": 6717,
      "slots": 6718,
      "Ġquality": 6719,
      "Be": 6720,
      "Card": 6721,
      "ience": 6722,
      "Ħĥ": 6723,
      "Ġts": 6724,
      "lems": 6725,
      "Ġpex": 6726,
      "Ġconsole": 6727,
      "Ġbelong": 6728,
      "Ġlarger": 6729,
      "Ġdiameter": 6730,
      "ĠSort": 6731,
      "chem": 6732,
      "Ġbootstrap": 6733,
      "Required": 6734,
      "epend": 6735,
      "Ġclassname": 6736,
      "Expr": 6737,
      "Ġlengths": 6738,
      "Ġflat": 6739,
      "ACHE": 6740,
      "magnitude": 6741,
      "Ġresolver": 6742,
      "ĠShow": 6743,
      "Ġ'{}'": 6744,
      "Ġcombined": 6745,
      "Generate": 6746,
      "icrosoft": 6747,
      "ĠIterable": 6748,
      "neighbors": 6749,
      "35": 6750,
      "77": 6751,
      ":**": 6752,
      "Glyph": 6753,
      "Pub": 6754,
      "eff": 6755,
      "rum": 6756,
      "transcript": 6757,
      "ordered": 6758,
      "Ġfh": 6759,
      "Ġrev": 6760,
      "amount": 6761,
      "ĠPri": 6762,
      "Ġproj": 6763,
      "perm": 6764,
      "Ġrot": 6765,
      "Ġroom": 6766,
      "nsupported": 6767,
      "ttp": 6768,
      "subprocess": 6769,
      "Ġbuilder": 6770,
      "Ġtests": 6771,
      "ANG": 6772,
      "Ġvisible": 6773,
      "Ġproducts": 6774,
      "Handle": 6775,
      "specific": 6776,
      "ĠFormat": 6777,
      "LOGGER": 6778,
      "ĠTwilio": 6779,
      "'ve": 6780,
      "YZ": 6781,
      "cm": 6782,
      "Ġtick": 6783,
      "Ġwatch": 6784,
      "unded": 6785,
      "except": 6786,
      "ĠAND": 6787,
      "ĠOk": 6788,
      "owner": 6789,
      "Keyboard": 6790,
      "Ġactivity": 6791,
      "SIG": 6792,
      "Ġeffects": 6793,
      "Import": 6794,
      "tailment": 6795,
      "ĠMinimum": 6796,
      "Ġapplicable": 6797,
      "'ll": 6798,
      "Print": 6799,
      "Su": 6800,
      "cum": 6801,
      "mis": 6802,
      "xx": 6803,
      "ĠKe": 6804,
      "Ġsampling": 6805,
      "Ġwrong": 6806,
      "ident": 6807,
      "Ġhard": 6808,
      "Ġmeas": 6809,
      "using": 6810,
      "press": 6811,
      "ĠModel": 6812,
      "ĠGe": 6813,
      "songs": 6814,
      "ĠCopy": 6815,
      "Ġbackup": 6816,
      "definitions": 6817,
      "Ġidentified": 6818,
      "Ġmetabolites": 6819,
      "All": 6820,
      "Creates": 6821,
      "Operation": 6822,
      "crit": 6823,
      "âĦĥ": 6824,
      "Ġaffect": 6825,
      "arante": 6826,
      "Ġnb": 6827,
      "ĠRed": 6828,
      "Ġlittle": 6829,
      "ĠEither": 6830,
      "Ġrotation": 6831,
      "rences": 6832,
      "Ġlex": 6833,
      "notify": 6834,
      "nowled": 6835,
      "Jobs": 6836,
      "Ġchoices": 6837,
      "Ġcompatible": 6838,
      "ĠApply": 6839,
      "ĠDateTime": 6840,
      "Ġconvention": 6841,
      "phabet": 6842,
      "(%": 6843,
      ").__": 6844,
      "44": 6845,
      "Match": 6846,
      "Module": 6847,
      "Word": 6848,
      "gz": 6849,
      "holder": 6850,
      "spe": 6851,
      "atives": 6852,
      "Ġide": 6853,
      "Ġcrop": 6854,
      "Ġtopo": 6855,
      "Ġ(-": 6856,
      "Ġruntime": 6857,
      "Ġjid": 6858,
      "atory": 6859,
      "reads": 6860,
      "Ġsubsystem": 6861,
      "Ġattachment": 6862,
      "ird": 6863,
      "Ġleading": 6864,
      "Ġapplies": 6865,
      "READ": 6866,
      "Ġclients": 6867,
      "intersection": 6868,
      "Ġmapper": 6869,
      "Ġlevels": 6870,
      "Segment": 6871,
      "Ġcorresponds": 6872,
      "distribution": 6873,
      "ĠResult": 6874,
      "legate": 6875,
      "ProduceEvent": 6876,
      "HEADER": 6877,
      "Sync": 6878,
      "cwd": 6879,
      "hint": 6880,
      "ndim": 6881,
      "pan": 6882,
      "Ġ,": 6883,
      "rename": 6884,
      "steam": 6885,
      "roles": 6886,
      "Ġcobra": 6887,
      "ĠFa": 6888,
      "atting": 6889,
      "mos": 6890,
      "loading": 6891,
      "opulate": 6892,
      "Ġintersection": 6893,
      "ATCP": 6894,
      "[:]": 6895,
      "Ġoperating": 6896,
      "Ġvals": 6897,
      "autopilot": 6898,
      "ParseFile": 6899,
      "Ġexecuting": 6900,
      "DIR": 6901,
      "original": 6902,
      "LOW": 6903,
      "Ġdetermines": 6904,
      "sctg": 6905,
      "Obj": 6906,
      "TF": 6907,
      "ook": 6908,
      "raft": 6909,
      "ĠToken": 6910,
      "cks": 6911,
      "Ġcod": 6912,
      "Ġcost": 6913,
      "Ġhours": 6914,
      "ĠPh": 6915,
      "ominal": 6916,
      "Ġtrim": 6917,
      "Ġlayers": 6918,
      "recv": 6919,
      "Ġchoice": 6920,
      "ĠHeader": 6921,
      "priority": 6922,
      "Ġhistogram": 6923,
      "fastq": 6924,
      "phinx": 6925,
      "ĠIIIF": 6926,
      "UST": 6927,
      "ior": 6928,
      "nm": 6929,
      "yy": 6930,
      "ony": 6931,
      "ala": 6932,
      "alive": 6933,
      "uting": 6934,
      "Ġdescriptor": 6935,
      "Ġcop": 6936,
      "toil": 6937,
      "processed": 6938,
      "Ġheights": 6939,
      "energy": 6940,
      "ĠBundle": 6941,
      "Ġacross": 6942,
      "Ġ|=": 6943,
      "Ġzer": 6944,
      "TypeError": 6945,
      "libs": 6946,
      "iteritems": 6947,
      "variance": 6948,
      "Ġsupports": 6949,
      "Ġoptimization": 6950,
      "Ġterminal": 6951,
      "ificant": 6952,
      "=-": 6953,
      "CRE": 6954,
      "Pos": 6955,
      "Pipeline": 6956,
      "mrs": 6957,
      "onent": 6958,
      "hetic": 6959,
      "ale": 6960,
      "Ġcss": 6961,
      "Ġtheme": 6962,
      "Ġthings": 6963,
      "ĠSync": 6964,
      "resolver": 6965,
      "tau": 6966,
      "Ġprinted": 6967,
      "Ġpositional": 6968,
      "Control": 6969,
      "domains": 6970,
      "Ġhigher": 6971,
      "fficients": 6972,
      "Ġderiv": 6973,
      "Ġguarante": 6974,
      "Ġsensors": 6975,
      "NG": 6976,
      "css": 6977,
      "eq": 6978,
      "optim": 6979,
      "Ġ64": 6980,
      "seu": 6981,
      "ali": 6982,
      "Ġsms": 6983,
      "ĠRo": 6984,
      "diction": 6985,
      "Ġorbit": 6986,
      "Ġparagraph": 6987,
      "Ġproc": 6988,
      "Ġrr": 6989,
      "produced": 6990,
      "mines": 6991,
      "Ġformatter": 6992,
      "Ġzoom": 6993,
      "Ġurls": 6994,
      "Ġ40": 6995,
      "Ġsignals": 6996,
      "signal": 6997,
      "Ġpublished": 6998,
      "Ġlooks": 6999,
      "Ġscopes": 7000,
      "ĠOrder": 7001,
      "threads": 7002,
      "throats": 7003,
      "Interval": 7004,
      "ĠWireVector": 7005,
      "Width": 7006,
      "rection": 7007,
      "thumb": 7008,
      "ĠSSL": 7009,
      "ĠCloud": 7010,
      "quad": 7011,
      "']),": 7012,
      "ĠFFT": 7013,
      "Ġobjective": 7014,
      "ower": 7015,
      "accept": 7016,
      "Ġchecking": 7017,
      "Database": 7018,
      "Ġformats": 7019,
      "PIPE": 7020,
      "Ġlineno": 7021,
      "Types": 7022,
      "Serial": 7023,
      "Ġsymbols": 7024,
      "Ġsimul": 7025,
      "Child": 7026,
      "venience": 7027,
      "Ġwrites": 7028,
      "ĠShape": 7029,
      "slug": 7030,
      "Ġevaluation": 7031,
      "wrapped": 7032,
      "WithEventData": 7033,
      "Cursor": 7034,
      "ĠGitHub": 7035,
      "ProduceEventWithEventData": 7036,
      "seudo": 7037,
      "DNA": 7038,
      "pag": 7039,
      "}',": 7040,
      "seg": 7041,
      "enotype": 7042,
      "Ġinvoice": 7043,
      "Ġsn": 7044,
      "Ġdeli": 7045,
      "Ġmit": 7046,
      "Ġhidden": 7047,
      "ĠPipeline": 7048,
      "('{": 7049,
      "ĠVM": 7050,
      "timezone": 7051,
      "Ġshutdown": 7052,
      "Ġbasename": 7053,
      "contin": 7054,
      "filenames": 7055,
      "Ġvalu": 7056,
      "Unit": 7057,
      "Ġopj": 7058,
      "Ġpossibly": 7059,
      "Ġclosing": 7060,
      "Ġindicated": 7061,
      "ROM": 7062,
      "Ġwindows": 7063,
      "ValidationError": 7064,
      "super": 7065,
      "Ġeigen": 7066,
      "ĠSpecify": 7067,
      ")',": 7068,
      ")**": 7069,
      "Batch": 7070,
      "CS": 7071,
      "Grid": 7072,
      "PA": 7073,
      "TS": 7074,
      "_`": 7075,
      "bg": 7076,
      "false": 7077,
      "ye": 7078,
      "Ġlif": 7079,
      "rea": 7080,
      "stage": 7081,
      "Ġcar": 7082,
      "Ġincoming": 7083,
      "Ġselector": 7084,
      "Ġcoer": 7085,
      "ĠApi": 7086,
      "Ġhighest": 7087,
      "ĠPort": 7088,
      "ĠStore": 7089,
      "allen": 7090,
      "ĠEnsure": 7091,
      "ĠParseError": 7092,
      "Configuration": 7093,
      "Collection": 7094,
      "ĠControl": 7095,
      "ĠConfiguration": 7096,
      "ĠRegistry": 7097,
      "Ġsnapshots": 7098,
      "illiseconds": 7099,
      "CLA": 7100,
      "Out": 7101,
      "Wallet": 7102,
      "cles": 7103,
      "uamqp": 7104,
      "Ġtz": 7105,
      "Ġtun": 7106,
      "Ġcumulative": 7107,
      "Ġomitted": 7108,
      "ctype": 7109,
      "eto": 7110,
      "isode": 7111,
      "Ġmemo": 7112,
      "``:": 7113,
      "bos": 7114,
      "ifiers": 7115,
      "interpre": 7116,
      "ĠProtocol": 7117,
      "anguages": 7118,
      "Ġscaling": 7119,
      "annotations": 7120,
      "Ġmanually": 7121,
      "Ġeffective": 7122,
      "Ġ--------------": 7123,
      "={},": 7124,
      "ĠNewly": 7125,
      "Ġcandidate": 7126,
      "Ġsatis": 7127,
      "ĠCalculates": 7128,
      "'**": 7129,
      "75": 7130,
      ":],": 7131,
      "Can": 7132,
      "\\'": 7133,
      "ratic": 7134,
      "Ġten": 7135,
      "enalty": 7136,
      "deepcopy": 7137,
      "Ġplease": 7138,
      "Ġve": 7139,
      "Ġvs": 7140,
      "ĠTCP": 7141,
      "olding": 7142,
      "olygon": 7143,
      "ĠNe": 7144,
      "Ġ255": 7145,
      "places": 7146,
      "archive": 7147,
      "Ġgeneric": 7148,
      "Ġgroupby": 7149,
      "Ġfilesystem": 7150,
      "aster": 7151,
      "dae": 7152,
      "outputs": 7153,
      "TEXT": 7154,
      "population": 7155,
      "Ġprobably": 7156,
      "Ġgenome": 7157,
      "rtl": 7158,
      "LIST": 7159,
      "factors": 7160,
      "ntaxError": 7161,
      "Builder": 7162,
      "tected": 7163,
      "difference": 7164,
      "%(": 7165,
      "38": 7166,
      "Com": 7167,
      "ause": 7168,
      "sur": 7169,
      "Ġtreated": 7170,
      "selection": 7171,
      "--+": 7172,
      "Ġinplace": 7173,
      "izable": 7174,
      "providers": 7175,
      "Ġlens": 7176,
      "clination": 7177,
      "ĠWith": 7178,
      "Ġfilled": 7179,
      "Ġ{}).": 7180,
      "Ġteam": 7181,
      "\":\"": 7182,
      "Ġmeaning": 7183,
      "Ġinitialized": 7184,
      "polygon": 7185,
      "FIX": 7186,
      "Ġspeed": 7187,
      "FORMAT": 7188,
      "\"{": 7189,
      ",'": 7190,
      "Cloud": 7191,
      "MAC": 7192,
      "MOD": 7193,
      "mand": 7194,
      "sparse": 7195,
      "Ġtmux": 7196,
      "ardi": 7197,
      "Ġcc": 7198,
      "Ġnx": 7199,
      "identifiers": 7200,
      "Ġstat": 7201,
      "ĠASCII": 7202,
      "Ġ\"(": 7203,
      "Ġmeth": 7204,
      "ĠSup": 7205,
      "ĠSchema": 7206,
      "ems": 7207,
      "('.": 7208,
      "redis": 7209,
      "ĠUID": 7210,
      "Ġcomplet": 7211,
      "Ġxr": 7212,
      "ĠWrites": 7213,
      "Ġcodec": 7214,
      "Ġverification": 7215,
      "LECT": 7216,
      "Ġinterest": 7217,
      "Ġfollows": 7218,
      "Ġconverts": 7219,
      "ĠGenerator": 7220,
      "ĠIPv": 7221,
      "ypot": 7222,
      "cloud": 7223,
      "Callback": 7224,
      "Ġlatitude": 7225,
      "Ġsense": 7226,
      "DIRECT": 7227,
      "Ass": 7228,
      "dent": 7229,
      "mongo": 7230,
      "oauth": 7231,
      "zed": 7232,
      "Ġtau": 7233,
      "inct": 7234,
      "atype": 7235,
      "ert": 7236,
      "ermin": 7237,
      "stants": 7238,
      "Ġcn": 7239,
      "anit": 7240,
      "Ġear": 7241,
      "diameter": 7242,
      "endar": 7243,
      "Ġlocated": 7244,
      "Ġranges": 7245,
      "taint": 7246,
      "Ġmaps": 7247,
      "Ġobservations": 7248,
      "ĠURLs": 7249,
      "visual": 7250,
      "Ġcleanup": 7251,
      "Ġconsumed": 7252,
      "Ġbroadcast": 7253,
      "Shape": 7254,
      "Ġidentical": 7255,
      "Ġdetected": 7256,
      "NotFoundError": 7257,
      "enchmark": 7258,
      "And": 7259,
      "BE": 7260,
      "Mode": 7261,
      "Ps": 7262,
      "SQL": 7263,
      "You": 7264,
      "nn": 7265,
      "tell": 7266,
      "Ġtar": 7267,
      "statistics": 7268,
      "Ġance": 7269,
      "idy": 7270,
      "digit": 7271,
      "Ġhalf": 7272,
      "ĠDNS": 7273,
      "iration": 7274,
      "ĠHas": 7275,
      "Ġoverwrit": 7276,
      "Ġgeneral": 7277,
      "ioloop": 7278,
      "ĠNotImplementedError": 7279,
      "variant": 7280,
      "Ġcontrols": 7281,
      "Ġangles": 7282,
      "ĠNOT": 7283,
      "authenticated": 7284,
      "MODE": 7285,
      "Variable": 7286,
      "StatisticsInstance": 7287,
      ")`": 7288,
      "Sensor": 7289,
      "icon": 7290,
      "lation": 7291,
      "rr": 7292,
      "wraps": 7293,
      "čĊĠĠĠĠĠĠĠĠĠĠĠĠĠĠĠĠĠĠĠ": 7294,
      "ora": 7295,
      "Ġpb": 7296,
      "Ġol": 7297,
      "Ġdeviation": 7298,
      "ĠIs": 7299,
      "listen": 7300,
      "ĠPE": 7301,
      "ĠPl": 7302,
      "ĠSto": 7303,
      "ĠFe": 7304,
      "ivate": 7305,
      "ĠVersion": 7306,
      "Ġ**'": 7307,
      "Stack": 7308,
      "submit": 7309,
      "Ġworkers": 7310,
      "Ġproperly": 7311,
      "Ġhandles": 7312,
      "ront": 7313,
      "Ġmaybe": 7314,
      "defs": 7315,
      "gene": 7316,
      "Ġ90": 7317,
      "CODE": 7318,
      "StringArray": 7319,
      "Metadata": 7320,
      "adjac": 7321,
      "consumed": 7322,
      "Web": 7323,
      "ĠVerify": 7324,
      "subscriptions": 7325,
      "DateTimeValues": 7326,
      "Extraction": 7327,
      "(__": 7328,
      "LINE": 7329,
      "Net": 7330,
      "OT": 7331,
      "PL": 7332,
      "TL": 7333,
      "Wrapper": 7334,
      "]}": 7335,
      "cator": 7336,
      "Ġaioxmpp": 7337,
      "urb": 7338,
      "Ġdeep": 7339,
      "Ġmuch": 7340,
      "chanism": 7341,
      "Ġcookies": 7342,
      "ordin": 7343,
      "(\"{}": 7344,
      "Ġmass": 7345,
      "provider": 7346,
      "Ġfloats": 7347,
      "curity": 7348,
      "currency": 7349,
      "crets": 7350,
      "Ġinstanti": 7351,
      "flatten": 7352,
      "accounts": 7353,
      "executor": 7354,
      "servers": 7355,
      "ĠCallable": 7356,
      "fragment": 7357,
      "Ġcells": 7358,
      "Ġvertical": 7359,
      "Ġqualified": 7360,
      "Ġtornado": 7361,
      "ĠFlag": 7362,
      "dp": 7363,
      "atural": 7364,
      "Ġreally": 7365,
      "Ġnucleotide": 7366,
      "Ġmanaged": 7367,
      "lash": 7368,
      "ĠPos": 7369,
      "igation": 7370,
      "more": 7371,
      "Ġtranslate": 7372,
      "Ġbuff": 7373,
      "ĠOptionally": 7374,
      "ĊĠĠĠĠĠĠĠĠĠĠĠĠĠĠĠĠĠĠĠĠĠĠĠĠĠĠĠĠĠĠĠĠĠĠĠĠĠĠĠĠĠĠĠĠĠ": 7375,
      "Ġwhy": 7376,
      "polate": 7377,
      "callbacks": 7378,
      "Ġremoving": 7379,
      "Ġretries": 7380,
      "Ġmediator": 7381,
      "Ġpropag": 7382,
      "Ġchoose": 7383,
      "Ġcandidates": 7384,
      "ĠOkay": 7385,
      "CACHE": 7386,
      "IQ": 7387,
      "OUT": 7388,
      "]).": 7389,
      "but": 7390,
      "credentials": 7391,
      "fail": 7392,
      "iet": 7393,
      "tor": 7394,
      "tar": 7395,
      "Ġcsv": 7396,
      "lision": 7397,
      "Ġdeclared": 7398,
      "Ġ'*": 7399,
      "rase": 7400,
      "tolist": 7401,
      "')[": 7402,
      "ario": 7403,
      "versions": 7404,
      "mapi": 7405,
      "mapped": 7406,
      "ensure": 7407,
      "ULL": 7408,
      "Ġissues": 7409,
      "Ġrespectively": 7410,
      "ĠAssign": 7411,
      "ticks": 7412,
      "coordinates": 7413,
      "ĠXXXX": 7414,
      "incipal": 7415,
      "'``": 7416,
      ")(": 7417,
      "Cti": 7418,
      "Given": 7419,
      "OB": 7420,
      "Step": 7421,
      "`).": 7422,
      "tol": 7423,
      "vailable": 7424,
      "Ġtensor": 7425,
      "engine": 7426,
      "Ġrecovery": 7427,
      "Ġgzip": 7428,
      "Ġlisted": 7429,
      "predicate": 7430,
      "Ġjbody": 7431,
      "ĠInline": 7432,
      "ĠExp": 7433,
      "Ġinterfaces": 7434,
      "Ġtransitive": 7435,
      "leton": 7436,
      "comments": 7437,
      "Ġsingular": 7438,
      "Ġlibraries": 7439,
      "FIE": 7440,
      "projection": 7441,
      "Ġskipped": 7442,
      "Ġrendered": 7443,
      "ĠLoads": 7444,
      "Ġweighted": 7445,
      "Ġsmart": 7446,
      "Generator": 7447,
      "Ġmodification": 7448,
      "FS": 7449,
      "density": 7450,
      "gc": 7451,
      "ium": 7452,
      "inations": 7453,
      "selector": 7454,
      "Ġreject": 7455,
      "Ġrefer": 7456,
      "Ġemit": 7457,
      "loss": 7458,
      "unused": 7459,
      "oti": 7460,
      "ulary": 7461,
      "ĠAfter": 7462,
      "()``": 7463,
      "Ġliteral": 7464,
      "workunit": 7465,
      "ĠReplace": 7466,
      "Ġtransfer": 7467,
      "Ġdispatch": 7468,
      "ĠSelect": 7469,
      "ĠSetup": 7470,
      "relations": 7471,
      "cpu": 7472,
      "connections": 7473,
      "dependency": 7474,
      "svc": 7475,
      "NOT": 7476,
      "Structure": 7477,
      "VERSION": 7478,
      "stdin": 7479,
      "aggreg": 7480,
      "retries": 7481,
      "Ġspacing": 7482,
      "Ġspectrum": 7483,
      "CM": 7484,
      "Go": 7485,
      "gagement": 7486,
      "water": 7487,
      "sec": 7488,
      "metry": 7489,
      "Ġredis": 7490,
      "Ġsk": 7491,
      "Ġbio": 7492,
      "Ġstick": 7493,
      "rier": 7494,
      "Ġthus": 7495,
      "existing": 7496,
      "ĠPack": 7497,
      "embed": 7498,
      "('{}": 7499,
      "Ġ*=": 7500,
      "may": 7501,
      "Ġdocs": 7502,
      "Inst": 7503,
      "ops": 7504,
      "infos": 7505,
      "weka": 7506,
      "cluding": 7507,
      "Dataset": 7508,
      "Decode": 7509,
      "roots": 7510,
      "parents": 7511,
      "Ġcomma": 7512,
      "pheric": 7513,
      "ĠTimeout": 7514,
      "Ġclause": 7515,
      "globus": 7516,
      "Root": 7517,
      "Ġlegend": 7518,
      "VICE": 7519,
      ")/": 7520,
      "Usage": 7521,
      "dro": 7522,
      "fr": 7523,
      "pip": 7524,
      "rho": 7525,
      "uv": 7526,
      "Ġfg": 7527,
      "decess": 7528,
      "Ġcwd": 7529,
      "Ġms": 7530,
      "Ġ'?": 7531,
      "dia": 7532,
      "Ġhab": 7533,
      "ĠSince": 7534,
      "icle": 7535,
      "ĠOmapi": 7536,
      "ĠMay": 7537,
      "compiler": 7538,
      "Ġends": 7539,
      "Ġendpoints": 7540,
      "DataType": 7541,
      "fileng": 7542,
      "Tool": 7543,
      "Ġagent": 7544,
      "CONFIG": 7545,
      "sembly": 7546,
      "Ġpolygons": 7547,
      "customer": 7548,
      "52": 7549,
      "Flow": 7550,
      "Url": 7551,
      "Unsupported": 7552,
      "uc": 7553,
      "Ġke": 7554,
      "atalog": 7555,
      "erge": 7556,
      "student": 7557,
      "Ġrecogn": 7558,
      "Ġeval": 7559,
      "rices": 7560,
      "thresh": 7561,
      "ĠRout": 7562,
      "abort": 7563,
      "Ġ[âĦĥ": 7564,
      "undles": 7565,
      "Ġmaint": 7566,
      "team": 7567,
      "``)": 7568,
      "Ġcompiler": 7569,
      "calc": 7570,
      "backup": 7571,
      "Ġvalidated": 7572,
      "Ġoverall": 7573,
      "mapreduce": 7574,
      "shes": 7575,
      "Ġreflect": 7576,
      "ĠComputes": 7577,
      "ToParseFile": 7578,
      "MAP": 7579,
      "scopes": 7580,
      "Ġplaylist": 7581,
      "Application": 7582,
      "ĠHowever": 7583,
      "DevVar": 7584,
      "mospheric": 7585,
      "Ġ[âĦĥ]": 7586,
      ":,": 7587,
      "Access": 7588,
      "ipe": 7589,
      "km": 7590,
      "pb": 7591,
      "sk": 7592,
      "scheme": 7593,
      "orical": 7594,
      "Ġpp": 7595,
      "Ġpragma": 7596,
      "Ġbg": 7597,
      "Ġecho": 7598,
      "ptools": 7599,
      "umi": 7600,
      "ollow": 7601,
      "odcast": 7602,
      "Ġloci": 7603,
      "ĠDon": 7604,
      "ĠDraw": 7605,
      "hop": 7606,
      "phase": 7607,
      "Ġformatting": 7608,
      "Ġaddr": 7609,
      "ONE": 7610,
      "\"][": 7611,
      "Ġtraining": 7612,
      "LETE": 7613,
      "Profile": 7614,
      "Ġlikely": 7615,
      "reports": 7616,
      "received": 7617,
      "bottom": 7618,
      "ĠIdentifier": 7619,
      "8601": 7620,
      "Ġmixed": 7621,
      "ĠTabPost": 7622,
      "tainty": 7623,
      "FIELD": 7624,
      "DL": 7625,
      "Me": 7626,
      "gun": 7627,
      "si": 7628,
      "yles": 7629,
      "Ġlab": 7630,
      "Ġhad": 7631,
      "ĠCLI": 7632,
      "Ġpointer": 7633,
      "Ġunid": 7634,
      "Ġcompared": 7635,
      "Ġupon": 7636,
      "ĠExtra": 7637,
      "begin": 7638,
      "quality": 7639,
      "Ġ'/'": 7640,
      "Adds": 7641,
      "serializer": 7642,
      "Ġchosen": 7643,
      "selected": 7644,
      "Ġpercentile": 7645,
      "Ġestimate": 7646,
      "Ġaggregate": 7647,
      "neighbor": 7648,
      "Ġmeasurement": 7649,
      "Role": 7650,
      "Ġsynset": 7651,
      "unctools": 7652,
      "Ġadjacency": 7653,
      "Abstract": 7654,
      ",))": 7655,
      ".'''": 7656,
      "RNA": 7657,
      "dn": 7658,
      "ned": 7659,
      "sequ": 7660,
      "stanza": 7661,
      "deleted": 7662,
      "Ġthing": 7663,
      "Ġusually": 7664,
      "vest": 7665,
      "ĠClean": 7666,
      "Ġpars": 7667,
      "attrib": 7668,
      "Ġcompiled": 7669,
      "workers": 7670,
      "Ġquantity": 7671,
      "Ġsound": 7672,
      "mitogen": 7673,
      "Ġfaked": 7674,
      "Ġpypsa": 7675,
      "mapper": 7676,
      "registered": 7677,
      "ĠjobGraph": 7678,
      "ĠState": 7679,
      "ĠComm": 7680,
      "queryset": 7681,
      "Ġnetworks": 7682,
      "Ġinitialization": 7683,
      "ĠĠĠĠĠĠĠĠĠĠĠĠĠĠĠĠĠĠĠĠĠĠĠĠĠĠĠ": 7684,
      "MPP": 7685,
      "hooks": 7686,
      "Ġinterpolate": 7687,
      "Ġexpires": 7688,
      "ĠInitialize": 7689,
      "Ġcoefficients": 7690,
      "districts": 7691,
      "Header": 7692,
      "vanced": 7693,
      "Ġmitogen": 7694,
      "Hash": 7695,
      "Specifi": 7696,
      "ging": 7697,
      "qa": 7698,
      "ufo": 7699,
      "endian": 7700,
      "Ġbasis": 7701,
      "Ġstand": 7702,
      "ĠTest": 7703,
      "Ġ({": 7704,
      "Ġ19": 7705,
      "ĠOut": 7706,
      "001": 7707,
      "Ġcanonical": 7708,
      "Ġtrying": 7709,
      "subsystem": 7710,
      "Example": 7711,
      "latest": 7712,
      "Properties": 7713,
      "Ġextended": 7714,
      "ĊĠĠĠĠĠĠĠĠĠĠĠĠĠĠĠĠĠĠĠĠĠĠĠĠĠĠĠĠĠĠĠĠĠĠĠĠĠĠĠĠĠĠĠĠĠĠ": 7715,
      "charset": 7716,
      "CESS": 7717,
      "ĠCallback": 7718,
      "ĠExecution": 7719,
      "Ġcycle": 7720,
      "Ġcomparis": 7721,
      "Ġinherit": 7722,
      "Ġbecomes": 7723,
      "QUEST": 7724,
      "Font": 7725,
      "_=": 7726,
      "ftime": 7727,
      "voltage": 7728,
      "Ġur": 7729,
      "algorithm": 7730,
      "lee": 7731,
      "ueprint": 7732,
      "enter": 7733,
      "ĠSimple": 7734,
      "('#": 7735,
      "ĠModule": 7736,
      "timedelta": 7737,
      "ĠJava": 7738,
      "ATOR": 7739,
      "splitext": 7740,
      "NTAX": 7741,
      "Selection": 7742,
      "Ġclip": 7743,
      "ĠUseful": 7744,
      "OUR": 7745,
      "UNK": 7746,
      "Ġmetabolic": 7747,
      "Ġperson": 7748,
      "Ġlargest": 7749,
      "sensitive": 7750,
      "ĠOPTIONS": 7751,
      "05": 7752,
      "Back": 7753,
      "HA": 7754,
      "SV": 7755,
      "car": 7756,
      "cus": 7757,
      "fingerprint": 7758,
      "mime": 7759,
      "prompt": 7760,
      "Ġrecomm": 7761,
      "analyses": 7762,
      "Ġsizes": 7763,
      "pex": 7764,
      "Ġgrouped": 7765,
      "ĠAWS": 7766,
      "dip": 7767,
      "ĠPost": 7768,
      "conver": 7769,
      "Ġproduce": 7770,
      "appro": 7771,
      "Ġintended": 7772,
      "ownload": 7773,
      "Ġrunner": 7774,
      "Ġreaders": 7775,
      "Ġ\\\\": 7776,
      "Ġsignificant": 7777,
      "FileIO": 7778,
      "layout": 7779,
      "Ġpacked": 7780,
      "Uni": 7781,
      "Search": 7782,
      "Ġ'.'": 7783,
      "canvas": 7784,
      "Ġneighbor": 7785,
      "Ġhexa": 7786,
      "Ġstdin": 7787,
      "DevVarStringArray": 7788,
      ">\\": 7789,
      "AF": 7790,
      "Ljava": 7791,
      "Vec": 7792,
      "failure": 7793,
      "pages": 7794,
      "sin": 7795,
      "vs": 7796,
      "ĠĊĠĠĠ": 7797,
      "atial": 7798,
      "Ġsil": 7799,
      "ĠAnd": 7800,
      "digits": 7801,
      "ĠFil": 7802,
      "scene": 7803,
      "ĠUsing": 7804,
      "ĠUsage": 7805,
      "Ġpreserve": 7806,
      "Ġdoing": 7807,
      "background": 7808,
      "ĠReset": 7809,
      "Ġdirections": 7810,
      "linalg": 7811,
      "ĠJID": 7812,
      "Ġclusters": 7813,
      "ĠjobStore": 7814,
      "Ġprimary": 7815,
      "tuples": 7816,
      "Ġstores": 7817,
      "AddOn": 7818,
      "USER": 7819,
      "longitude": 7820,
      "Ġembedding": 7821,
      "ĠCurrently": 7822,
      "bosity": 7823,
      "!\")": 7824,
      ">\"": 7825,
      "AML": 7826,
      "CA": 7827,
      "Document": 7828,
      "NC": 7829,
      "Window": 7830,
      "lator": 7831,
      "timer": 7832,
      "ĠĠĠĠĠĠĠĠĠĠĠĠĠĠĠ": 7833,
      "Ġnor": 7834,
      "Ġ'[": 7835,
      "ĠTO": 7836,
      "Ġ(``": 7837,
      "Ġthough": 7838,
      "ĠPandas": 7839,
      "ĠSu": 7840,
      "conv": 7841,
      "Ġchart": 7842,
      "Ġheat": 7843,
      "calcul": 7844,
      "Reply": 7845,
      "ecause": 7846,
      "ĠInsert": 7847,
      "validation": 7848,
      "Ġsudo": 7849,
      "subset": 7850,
      "forward": 7851,
      "Params": 7852,
      "splitlines": 7853,
      "executable": 7854,
      "Ġdistances": 7855,
      "Ġreports": 7856,
      "valuate": 7857,
      "Ġassumes": 7858,
      "ĠAsset": 7859,
      "ĠExecute": 7860,
      "Does": 7861,
      "Ġhyper": 7862,
      "DateTimeValuesEvent": 7863,
      "404": 7864,
      ":\",": 7865,
      "Det": 7866,
      "Host": 7867,
      "MT": 7868,
      "jp": 7869,
      "nk": 7870,
      "tun": 7871,
      "trunk": 7872,
      "stor": 7873,
      "decor": 7874,
      "Ġcm": 7875,
      "Ġinvest": 7876,
      "Ġwish": 7877,
      "ptime": 7878,
      "Ġ([": 7879,
      "Ġgamma": 7880,
      "participant": 7881,
      "exe": 7882,
      "()}": 7883,
      "Ġhull": 7884,
      "ĠCom": 7885,
      "ĠNow": 7886,
      "Ġ``(": 7887,
      "Ġens": 7888,
      "ĠUUID": 7889,
      "ĠVideo": 7890,
      "readline": 7891,
      "Ġdefaultdict": 7892,
      "somes": 7893,
      "Ġsuggest": 7894,
      "namespaces": 7895,
      "Ġsignatures": 7896,
      "sumers": 7897,
      "FileEntry": 7898,
      "Ġextraction": 7899,
      "Ġscen": 7900,
      "Ġchars": 7901,
      "Ġspin": 7902,
      "Ġtesting": 7903,
      "Ġgenotype": 7904,
      "Ġregions": 7905,
      "dependent": 7906,
      "Ġcombination": 7907,
      "pnm": 7908,
      "distances": 7909,
      "ĠInstall": 7910,
      "ĠInstances": 7911,
      "Ġmiddle": 7912,
      "ĠAuthorization": 7913,
      "Ġscheduled": 7914,
      "affold": 7915,
      "Ġadjacent": 7916,
      "romosomes": 7917,
      "adjacency": 7918,
      "'{": 7919,
      "Rate": 7920,
      "Ts": 7921,
      "frequency": 7922,
      "js": 7923,
      "must": 7924,
      "tk": 7925,
      "Ġtax": 7926,
      "Ġtrunk": 7927,
      "enable": 7928,
      "Ġnan": 7929,
      "Ġbrowser": 7930,
      "lix": 7931,
      "Ġdecoder": 7932,
      "Ġ'':": 7933,
      "rict": 7934,
      "ĠRandom": 7935,
      "else": 7936,
      "Ġhint": 7937,
      "ĠSE": 7938,
      "ĠClose": 7939,
      "Ġ11": 7940,
      "Ġartic": 7941,
      "ffset": 7942,
      "shutdown": 7943,
      "ipv": 7944,
      "Ġattempts": 7945,
      "ĠHO": 7946,
      "Ġformula": 7947,
      "Ġindexed": 7948,
      "complex": 7949,
      "Ġminor": 7950,
      "Ġverb": 7951,
      "Sets": 7952,
      "Ġ\"\")": 7953,
      "choices": 7954,
      "Ġgeo": 7955,
      "ĊĠĠĠĠĠĠĠĠĠĠĠĠĠĠĠĠĠĠĠĠĠĠĠĠĠĠĠĠĠĠĠĠĠĠĠĠĠĠĠĠĠĠĠĠĠĠĠĠĠ": 7956,
      "Display": 7957,
      "Ġanswer": 7958,
      "aplotype": 7959,
      "ĠSYNTAX": 7960,
      "->": 7961,
      "65": 7962,
      "AUT": 7963,
      "Current": 7964,
      "Description": 7965,
      "GI": 7966,
      "Helper": 7967,
      "Limit": 7968,
      "[(": 7969,
      "]+": 7970,
      "ares": 7971,
      "vcf": 7972,
      "enc": 7973,
      "Ġcd": 7974,
      "Ġinfer": 7975,
      "Ġ'\"": 7976,
      "Ġnotes": 7977,
      "ĠSplit": 7978,
      "virt": 7979,
      "Ġparallel": 7980,
      "cian": 7981,
      "maked": 7982,
      "ĠHttp": 7983,
      "Ġaccepts": 7984,
      "Ġresponses": 7985,
      "Ġbasestring": 7986,
      "Ġhandled": 7987,
      "Ġdefines": 7988,
      "ARNING": 7989,
      "beat": 7990,
      "Ġnonce": 7991,
      "levels": 7992,
      "prefixes": 7993,
      "ĠUnable": 7994,
      "Timestamp": 7995,
      "Nodes": 7996,
      "Env": 7997,
      "ruit": 7998,
      "specified": 7999,
      "Ġbinding": 8000,
      "PARAM": 8001,
      "compatible": 8002,
      ")*": 8003,
      "74": 8004,
      "PR": 8005,
      "WOR": 8006,
      "break": 8007,
      "elem": 8008,
      "hour": 8009,
      "pus": 8010,
      "zz": 8011,
      "mets": 8012,
      "Ġphi": 8013,
      "Ġrename": 8014,
      "Ġnice": 8015,
      "Ġtoil": 8016,
      "Ġdeps": 8017,
      "Ġvr": 8018,
      "Ġgran": 8019,
      "ational": 8020,
      "asing": 8021,
      "ĠSim": 8022,
      "ĠCON": 8023,
      "concern": 8024,
      "andatory": 8025,
      "figure": 8026,
      "appa": 8027,
      "usted": 8028,
      "Ġpathname": 8029,
      "ĠWallet": 8030,
      "callable": 8031,
      "ĠExport": 8032,
      "maximum": 8033,
      "Ġimports": 8034,
      "ORTED": 8035,
      "ARD": 8036,
      "Artifact": 8037,
      "Ġnormalization": 8038,
      "certainty": 8039,
      "Ġtimestamps": 8040,
      "functions": 8041,
      "cells": 8042,
      "ĠDESCRIPTION": 8043,
      "Ġoccurrence": 8044,
      "click": 8045,
      "bands": 8046,
      "Ġconstructed": 8047,
      "expires": 8048,
      "candidates": 8049,
      "Lib": 8050,
      "PS": 8051,
      "Tra": 8052,
      "Title": 8053,
      "_(": 8054,
      "average": 8055,
      "vt": 8056,
      "Ġrestrict": 8057,
      "Ġslow": 8058,
      "rot": 8059,
      "lid": 8060,
      "Ġmargin": 8061,
      "isher": 8062,
      "ĠAct": 8063,
      "ĠPa": 8064,
      "imate": 8065,
      "ĠNaN": 8066,
      "numeric": 8067,
      "Ġdisconnect": 8068,
      "ATCH": 8069,
      "LED": 8070,
      "primary": 8071,
      "ĠĠĠĠĠĠĠĠĠĠĠĠĠĠĠĠĠĠĠĠĠĠĠĠĠĠ": 8072,
      "NotEx": 8073,
      "charact": 8074,
      "Ġplain": 8075,
      "Validate": 8076,
      "Ġestimated": 8077,
      "Iteration": 8078,
      "Ġhappens": 8079,
      "Ġmonitor": 8080,
      "Feature": 8081,
      "removed": 8082,
      "Depend": 8083,
      "UC": 8084,
      "cu": 8085,
      "sr": 8086,
      "arily": 8087,
      "Ġpc": 8088,
      "Ġplist": 8089,
      "etches": 8090,
      "Ġbc": 8091,
      "Ġmappings": 8092,
      "Ġcores": 8093,
      "dictions": 8094,
      "illing": 8095,
      "ĠOb": 8096,
      "Ġ256": 8097,
      "Ġdocker": 8098,
      "Ġsubclasses": 8099,
      "calculate": 8100,
      "subtype": 8101,
      "Ġflux": 8102,
      "issues": 8103,
      "Ġplotting": 8104,
      "general": 8105,
      "Select": 8106,
      "certificate": 8107,
      "Ġproblems": 8108,
      "Ġgoing": 8109,
      "Ġvisibility": 8110,
      "=[],": 8111,
      "latitude": 8112,
      "Ġartist": 8113,
      "Ġxyz": 8114,
      "Ġconflicts": 8115,
      "ĠMagIC": 8116,
      "Ġzeros": 8117,
      "Ġunidata": 8118,
      "29": 8119,
      "BO": 8120,
      "GL": 8121,
      "New": 8122,
      "RC": 8123,
      "XML": 8124,
      "ja": 8125,
      "jax": 8126,
      "ui": 8127,
      "Ġ>>": 8128,
      "erical": 8129,
      "Ġaudit": 8130,
      "delimit": 8131,
      "ĠTag": 8132,
      "Ġproof": 8133,
      "mmar": 8134,
      "Ġenforce": 8135,
      "Ġfaster": 8136,
      "ĠDefin": 8137,
      "ĠJob": 8138,
      "aking": 8139,
      "REQUEST": 8140,
      "[::-": 8141,
      "Ġpartitions": 8142,
      "Ġnonzero": 8143,
      "Ġaccounts": 8144,
      "Ġviews": 8145,
      "Ġplaintext": 8146,
      "detail": 8147,
      "SKIP": 8148,
      "VALID": 8149,
      "Member": 8150,
      "mkdir": 8151,
      "Symbol": 8152,
      "atoms": 8153,
      "73": 8154,
      "EE": 8155,
      "Failure": 8156,
      "IF": 8157,
      "bika": 8158,
      "sizes": 8159,
      "tf": 8160,
      "Ġdry": 8161,
      "Ġeg": 8162,
      "Ġelem": 8163,
      "logs": 8164,
      "Ġconstraint": 8165,
      "construct": 8166,
      "strftime": 8167,
      "Ġ{:": 8168,
      "codec": 8169,
      "ims": 8170,
      "Ġjvm": 8171,
      "ught": 8172,
      "ĠUnknown": 8173,
      "Any": 8174,
      "Local": 8175,
      "ĠKATCP": 8176,
      "SSL": 8177,
      "scribed": 8178,
      "Ġpopul": 8179,
      "origins": 8180,
      "ĠCalls": 8181,
      "Ġnotebook": 8182,
      "ĠConfigure": 8183,
      "Ġexpired": 8184,
      "Worker": 8185,
      "collections": 8186,
      "Ġhooks": 8187,
      "Ġnotifications": 8188,
      "Ġtriggers": 8189,
      "virtual": 8190,
      "makedirs": 8191,
      "DATE": 8192,
      "Metri": 8193,
      "Rule": 8194,
      "[~": 8195,
      "gd": 8196,
      "incoming": 8197,
      "remain": 8198,
      "recurs": 8199,
      "encoder": 8200,
      "alyst": 8201,
      "Ġsib": 8202,
      "Ġdebu": 8203,
      "atell": 8204,
      "parsing": 8205,
      "ĠRPC": 8206,
      "dictionary": 8207,
      "Ġexpon": 8208,
      "ubic": 8209,
      "angular": 8210,
      "Ġ%(": 8211,
      "Ġsubtype": 8212,
      "ĠReport": 8213,
      "Ġvariance": 8214,
      "Ġ\\'": 8215,
      "mediate": 8216,
      "prime": 8217,
      "void": 8218,
      "Changed": 8219,
      "Ġauthenticated": 8220,
      "bookmark": 8221,
      "AuthError": 8222,
      "Ġartifacts": 8223,
      "ĠSends": 8224,
      "509": 8225,
      "sqlite": 8226,
      "Ġciphertext": 8227,
      "aliases": 8228,
      "allenge": 8229,
      "Ġhabu": 8230,
      "\">": 8231,
      "USE": 8232,
      "camera": 8233,
      "hub": 8234,
      "ike": 8235,
      "mol": 8236,
      "many": 8237,
      "pf": 8238,
      "td": 8239,
      "vstack": 8240,
      "âĢ": 8241,
      "Ġ])": 8242,
      "Ġtimer": 8243,
      "ongs": 8244,
      "Ġfrozen": 8245,
      "anization": 8246,
      "anks": 8247,
      "Ġdates": 8248,
      "Ġmilliseconds": 8249,
      "ĠTrack": 8250,
      "Ġ(`": 8251,
      "Ġexamples": 8252,
      "Ġdims": 8253,
      "Ġproto": 8254,
      "')):": 8255,
      "rents": 8256,
      "hile": 8257,
      "Ġunsigned": 8258,
      "ĠLet": 8259,
      "Ġencryption": 8260,
      "ĠUTC": 8261,
      "Ġprecip": 8262,
      "Ġcompression": 8263,
      "notation": 8264,
      "contribution": 8265,
      "Ġending": 8266,
      "Exp": 8267,
      "Ġpie": 8268,
      "lets": 8269,
      "Ġbeta": 8270,
      "transactions": 8271,
      "checkpoint": 8272,
      "Ġsorting": 8273,
      "theme": 8274,
      "tains": 8275,
      "parsers": 8276,
      "Ġprobabilities": 8277,
      "Ġgeom": 8278,
      "Ġdirs": 8279,
      "Ġipv": 8280,
      "Ġcyl": 8281,
      "Ġtraceback": 8282,
      "UILD": 8283,
      "Ġaligned": 8284,
      "Ġalternative": 8285,
      "guide": 8286,
      "Phone": 8287,
      "uminant": 8288,
      "BY": 8289,
      "Category": 8290,
      "Length": 8291,
      "Make": 8292,
      "Popen": 8293,
      "PORT": 8294,
      "RGB": 8295,
      "Use": 8296,
      "dence": 8297,
      "holders": 8298,
      "mr": 8299,
      "nr": 8300,
      "qc": 8301,
      "helper": 8302,
      "Ġfed": 8303,
      "Ġsol": 8304,
      "fir": 8305,
      "Ġvend": 8306,
      "Ġhour": 8307,
      "listener": 8308,
      "Ġdialog": 8309,
      "Ġparcel": 8310,
      "usion": 8311,
      "ĠNB": 8312,
      "Ġprepare": 8313,
      "Ġints": 8314,
      "ĠVault": 8315,
      "Internal": 8316,
      "Ġnoqa": 8317,
      "Ġimportant": 8318,
      "Ġavatar": 8319,
      "Ġtraversal": 8320,
      "ducer": 8321,
      "irect": 8322,
      "disconnect": 8323,
      "Ġfollowed": 8324,
      "contains": 8325,
      "RegItem": 8326,
      "Ġtranslations": 8327,
      "ticipants": 8328,
      "Ġlisteners": 8329,
      "Ġrepeated": 8330,
      "Ġorientation": 8331,
      "ĠEntry": 8332,
      "NotExist": 8333,
      "Ġdebugging": 8334,
      ");": 8335,
      "45": 8336,
      "GR": 8337,
      "URE": 8338,
      "UNT": 8339,
      "lst": 8340,
      "Ġamb": 8341,
      "heses": 8342,
      "decoder": 8343,
      "chunks": 8344,
      "Ġexcluded": 8345,
      "ĠISO": 8346,
      "emap": 8347,
      "Ġunused": 8348,
      "Ġ``>>>": 8349,
      "ysical": 8350,
      "ailgun": 8351,
      "collect": 8352,
      "ifies": 8353,
      "aching": 8354,
      "Ġaccur": 8355,
      "scriber": 8356,
      "Stanza": 8357,
      "ĠReserved": 8358,
      "ĠConc": 8359,
      "bases": 8360,
      "Ġbutton": 8361,
      "Ġiterate": 8362,
      "refresh": 8363,
      "ĠForce": 8364,
      "Settings": 8365,
      "findall": 8366,
      "serverless": 8367,
      "Change": 8368,
      "management": 8369,
      "Ġclosest": 8370,
      "Thread": 8371,
      "constant": 8372,
      "ĠDisplay": 8373,
      "SPACE": 8374,
      "negative": 8375,
      "Multi": 8376,
      "Ġgradebook": 8377,
      "DoesNotExist": 8378,
      "/.": 8379,
      "SD": 8380,
      "azure": 8381,
      "epoch": 8382,
      "gence": 8383,
      "ich": 8384,
      "literal": 8385,
      "pm": 8386,
      "spark": 8387,
      "xarray": 8388,
      "}\")": 8389,
      "secut": 8390,
      "arity": 8391,
      "Ġfew": 8392,
      "Ġreversed": 8393,
      "ros": 8394,
      "rome": 8395,
      "Ġmicro": 8396,
      "Ġsector": 8397,
      "ĠSize": 8398,
      "quantity": 8399,
      "Ġasc": 8400,
      "ĠĠĠĠĠĠĠĠĠĠĠĠĠĠĠĠĠĠĠĠĠĠ": 8401,
      "iming": 8402,
      "ĠMatrix": 8403,
      "Ġpreset": 8404,
      "Ġcompact": 8405,
      "opj": 8406,
      "Ġshare": 8407,
      "Ġnoise": 8408,
      "starting": 8409,
      "STAT": 8410,
      "pended": 8411,
      "Expected": 8412,
      "typ": 8413,
      "ckets": 8414,
      "Ġprocessor": 8415,
      "Ġtrailing": 8416,
      "Ġstreams": 8417,
      "matplotlib": 8418,
      "defer": 8419,
      "Ġcalculates": 8420,
      "SIS": 8421,
      "Ġrefresh": 8422,
      "Ġtransforms": 8423,
      "COUNT": 8424,
      "Ġfitness": 8425,
      "Ġroutine": 8426,
      "Ġconsistent": 8427,
      "Ġperformance": 8428,
      "ĠExecutor": 8429,
      "sdk": 8430,
      "Ġfallback": 8431,
      "ĠMulti": 8432,
      "aplotypes": 8433,
      "Ġbrains": 8434,
      "Words": 8435,
      "ExtractionWarning": 8436,
      "\"\\": 8437,
      "Tuple": 8438,
      "cnt": 8439,
      "eye": 8440,
      "just": 8441,
      "nData": 8442,
      "palette": 8443,
      "sampling": 8444,
      "}`": 8445,
      "}/{": 8446,
      "ĠQu": 8447,
      "studio": 8448,
      "Ġfar": 8449,
      "Ġbug": 8450,
      "Ġwf": 8451,
      "Ġdegree": 8452,
      "amber": 8453,
      "cookies": 8454,
      "getLogger": 8455,
      "ĠDO": 8456,
      "Ġgetting": 8457,
      "ĠUFO": 8458,
      "Initial": 8459,
      "Ġforms": 8460,
      "Ġclassification": 8461,
      "controller": 8462,
      "requested": 8463,
      "((-": 8464,
      "directories": 8465,
      "Ġbackwards": 8466,
      "ADD": 8467,
      "Ġhelpers": 8468,
      "installed": 8469,
      "crypto": 8470,
      "versation": 8471,
      "Ġsymbolic": 8472,
      "Ġoccurred": 8473,
      "cleanup": 8474,
      "Ġinstructions": 8475,
      "Ġmetabolite": 8476,
      "ĠDecorator": 8477,
      "Authentic": 8478,
      "ĠScene": 8479,
      "Package": 8480,
      "sequent": 8481,
      "28": 8482,
      "Deter": 8483,
      "Tok": 8484,
      "Top": 8485,
      "Windows": 8486,
      "kit": 8487,
      "native": 8488,
      "tight": 8489,
      "wallet": 8490,
      "Ġtm": 8491,
      "Ġflo": 8492,
      "Ġred": 8493,
      "Ġ:@": 8494,
      "Ġann": 8495,
      "ĠIns": 8496,
      "Ġlb": 8497,
      "ĠPB": 8498,
      "('--": 8499,
      "Ġpolicies": 8500,
      "owel": 8501,
      "minimum": 8502,
      "Services": 8503,
      "Ġremoves": 8504,
      "Ġsentences": 8505,
      "going": 8506,
      "Ġ'-'": 8507,
      "finite": 8508,
      "Ġindentation": 8509,
      "shares": 8510,
      "longs": 8511,
      "Ġstripped": 8512,
      "unctuation": 8513,
      "SUB": 8514,
      "Ġresidual": 8515,
      "Ġhexadecimal": 8516,
      "([\"": 8517,
      "({})": 8518,
      "+'": 8519,
      "88": 8520,
      "Ge": 8521,
      "IME": 8522,
      "MIN": 8523,
      "plen": 8524,
      "Ġack": 8525,
      "Ġping": 8526,
      "Ġincorrect": 8527,
      "ansion": 8528,
      "itch": 8529,
      "Ġdy": 8530,
      "Ġtol": 8531,
      "Ġmutation": 8532,
      "Ġ\":": 8533,
      "getattr": 8534,
      "))))": 8535,
      "Ġrs": 8536,
      "ĠDjango": 8537,
      "(\"_": 8538,
      "Ġsubmitted": 8539,
      "dicts": 8540,
      "Ġcalibration": 8541,
      "compression": 8542,
      "triangles": 8543,
      "STATE": 8544,
      "Ġtempfile": 8545,
      "--------+": 8546,
      "Def": 8547,
      "Ġblocking": 8548,
      "Ġscaled": 8549,
      "published": 8550,
      "Ġissuer": 8551,
      "cheduled": 8552,
      "closing": 8553,
      "receive": 8554,
      "Struct": 8555,
      "Ġappears": 8556,
      "VALUE": 8557,
      "Ġcollected": 8558,
      "ĠGoogle": 8559,
      "Ġtriggered": 8560,
      "Ġvelocity": 8561,
      "93": 8562,
      "Dec": 8563,
      "Distribution": 8564,
      "Kind": 8565,
      "]*": 8566,
      "br": 8567,
      "browser": 8568,
      "oo": 8569,
      "switch": 8570,
      "windows": 8571,
      "seen": 8572,
      "Ġfamily": 8573,
      "Ġpalette": 8574,
      "peer": 8575,
      "Ġdw": 8576,
      "umid": 8577,
      "Ġcov": 8578,
      "Ġfire": 8579,
      "Ġholding": 8580,
      "ĠSO": 8581,
      "Ġ17": 8582,
      "']):": 8583,
      "ĠDirectory": 8584,
      "attachment": 8585,
      "(\"/": 8586,
      "pymongo": 8587,
      "proto": 8588,
      "ĠOPEN": 8589,
      "Ġpast": 8590,
      "Ġpresence": 8591,
      "Ġhealth": 8592,
      "ips": 8593,
      "modifi": 8594,
      "ressure": 8595,
      "Ġfloating": 8596,
      "sentences": 8597,
      "Ġbases": 8598,
      "positions": 8599,
      "Counter": 8600,
      "Ġprimal": 8601,
      "material": 8602,
      "Ġcurtailment": 8603,
      "views": 8604,
      "playlist": 8605,
      "Ġprefixes": 8606,
      "limits": 8607,
      "Ġretval": 8608,
      "poll": 8609,
      "Ġmarked": 8610,
      "ĠQueue": 8611,
      "255": 8612,
      "Ġgoal": 8613,
      "Ġinstallation": 8614,
      "Ġlocator": 8615,
      "ĠDetermines": 8616,
      "Ġcapture": 8617,
      "Ġivy": 8618,
      "ĠFIXME": 8619,
      "Ġcopies": 8620,
      "Ġeigenvalues": 8621,
      "Ġbiomass": 8622,
      "maybe": 8623,
      "remaining": 8624,
      "atellite": 8625,
      "Bus": 8626,
      "Fetch": 8627,
      "LY": 8628,
      "Video": 8629,
      "bins": 8630,
      "duplic": 8631,
      "ga": 8632,
      "ios": 8633,
      "katcp": 8634,
      "nc": 8635,
      "same": 8636,
      "xd": 8637,
      "ī¤": 8638,
      "inner": 8639,
      "oned": 8640,
      "Ġpasses": 8641,
      "ceed": 8642,
      "Ġbs": 8643,
      "lices": 8644,
      "come": 8645,
      "Ġgame": 8646,
      "asarray": 8647,
      "ĠRender": 8648,
      "Ġhorizontal": 8649,
      "resid": 8650,
      "ĠFlask": 8651,
      "Ġrval": 8652,
      "ĠEd": 8653,
      "ĠEmpty": 8654,
      "provided": 8655,
      "obar": 8656,
      "scripts": 8657,
      "acc": 8658,
      "START": 8659,
      "ĠDeserialize": 8660,
      "Expression": 8661,
      "mix": 8662,
      "Ġcurr": 8663,
      "ĠNamespace": 8664,
      "visible": 8665,
      "Ġdocuments": 8666,
      "Ġanalyzer": 8667,
      "Ġcombine": 8668,
      "routing": 8669,
      "products": 8670,
      "codon": 8671,
      "Ġrecipient": 8672,
      "Markup": 8673,
      "čĊčĊĠĠĠĠĠĠĠ": 8674,
      "measurements": 8675,
      "Ġassuming": 8676,
      "Ġseveral": 8677,
      "Ġorbitals": 8678,
      "secutive": 8679,
      "IR": 8680,
      "Over": 8681,
      "]_.": 8682,
      "bio": 8683,
      "gr": 8684,
      "scheduler": 8685,
      "uck": 8686,
      "atively": 8687,
      "Ġaz": 8688,
      "Ġfact": 8689,
      "leader": 8690,
      "Ġsalt": 8691,
      "Ġblack": 8692,
      "Ġdeal": 8693,
      "Ġdead": 8694,
      "Ġdevelo": 8695,
      "isk": 8696,
      "ĠRemote": 8697,
      "ĠPEX": 8698,
      "ĠSkip": 8699,
      "circ": 8700,
      "Ġyi": 8701,
      "Ġconfigurations": 8702,
      "=''):": 8703,
      "ĠRece": 8704,
      "trigger": 8705,
      "ACT": 8706,
      "grad": 8707,
      "generated": 8708,
      "Ġconnectivity": 8709,
      "Ġremoval": 8710,
      "Ġqueues": 8711,
      "Ġmarkers": 8712,
      "Ġoccup": 8713,
      "ĠPerforms": 8714,
      "Transform": 8715,
      "Ġfoot": 8716,
      "Ġretrieving": 8717,
      "coordinate": 8718,
      "ĠStopIteration": 8719,
      "Ġtruncated": 8720,
      "DecodeError": 8721,
      "Ġmaintain": 8722,
      "LATE": 8723,
      "](": 8724,
      "credential": 8725,
      "nes": 8726,
      "tpl": 8727,
      "inated": 8728,
      "arge": 8729,
      "alo": 8730,
      "Ġfs": 8731,
      "Ġba": 8732,
      "pedia": 8733,
      "ĠTurn": 8734,
      "ummy": 8735,
      "listdir": 8736,
      "ĠSing": 8737,
      "ĠCA": 8738,
      "ĠCL": 8739,
      "ĠCPU": 8740,
      "conc": 8741,
      "setting": 8742,
      "ivari": 8743,
      "Ġ``\"": 8744,
      "omial": 8745,
      "lify": 8746,
      "Ġquits": 8747,
      "Ġintersect": 8748,
      "contig": 8749,
      "contrib": 8750,
      "statement": 8751,
      "Protocol": 8752,
      "idxs": 8753,
      "Ġprojects": 8754,
      "ĠLocal": 8755,
      "generation": 8756,
      "seqs": 8757,
      "RequestException": 8758,
      "Ġupdating": 8759,
      "Ġlongitude": 8760,
      "Ġissub": 8761,
      "APWS": 8762,
      "NOWN": 8763,
      "clip": 8764,
      "retch": 8765,
      "deploy": 8766,
      "Signature": 8767,
      "translations": 8768,
      "Ġquoted": 8769,
      "Ġâī¤": 8770,
      "multipleWords": 8771,
      "Ġpredicted": 8772,
      "Ġhierarchy": 8773,
      "Ġensures": 8774,
      "\"}": 8775,
      ".%": 8776,
      "/{}": 8777,
      "401": 8778,
      ":\")": 8779,
      "DN": 8780,
      "Wait": 8781,
      "cid": 8782,
      "duplicate": 8783,
      "reci": 8784,
      "declaration": 8785,
      "Ġpull": 8786,
      "Ġrevision": 8787,
      "Ġnatural": 8788,
      "Ġsamp": 8789,
      "lick": 8790,
      "Ġmr": 8791,
      "colour": 8792,
      "Ġcos": 8793,
      "Ġbelongs": 8794,
      "Ġhom": 8795,
      "strategy": 8796,
      "Ġloss": 8797,
      "izations": 8798,
      "Ġprofiles": 8799,
      "ĠFetched": 8800,
      "(\",": 8801,
      "Ġ==========": 8802,
      "profiler": 8803,
      "article": 8804,
      "formatter": 8805,
      "Ġouter": 8806,
      "Ġimplicit": 8807,
      "Ġlaunch": 8808,
      "Ġ500": 8809,
      "TEN": 8810,
      "Ġdetail": 8811,
      "Ġports": 8812,
      "Ġintervals": 8813,
      "Ġdeploy": 8814,
      "ĠAssume": 8815,
      "ProduceExtractionWarning": 8816,
      "separated": 8817,
      "Ġwhitelist": 8818,
      "Ġslug": 8819,
      "Ġtopology": 8820,
      "ypotheses": 8821,
      "ĠOPENJ": 8822,
      "Has": 8823,
      "JID": 8824,
      "QU": 8825,
      "aux": 8826,
      "bet": 8827,
      "gap": 8828,
      "hours": 8829,
      "scores": 8830,
      "tod": 8831,
      "Ġtreat": 8832,
      "orient": 8833,
      "Ġair": 8834,
      "Ġinform": 8835,
      "ullable": 8836,
      "covered": 8837,
      "Ġ({})": 8838,
      "()\")": 8839,
      "ortran": 8840,
      "Ġalphabet": 8841,
      "sedb": 8842,
      "Ġtimedelta": 8843,
      "Ġattachments": 8844,
      "ĠHDF": 8845,
      "Ġuploaded": 8846,
      "plain": 8847,
      "__))": 8848,
      "RED": 8849,
      "Namespace": 8850,
      "Ġedx": 8851,
      "Ġcalculations": 8852,
      "ĠKE": 8853,
      "Ġtransformer": 8854,
      "Ġfinish": 8855,
      "Ġmanifest": 8856,
      "special": 8857,
      "Ġmonths": 8858,
      "Ġrespective": 8859,
      "experimental": 8860,
      "Ġlifetime": 8861,
      "Ġinvestigation": 8862,
      "Ġissubclass": 8863,
      ",),": 8864,
      "21": 8865,
      "AS": 8866,
      "Cho": 8867,
      "Cmd": 8868,
      "GS": 8869,
      "Position": 8870,
      "avel": 8871,
      "big": 8872,
      "dm": 8873,
      "given": 8874,
      "hit": 8875,
      "lstrip": 8876,
      "}').": 8877,
      "Ġtf": 8878,
      "Ġty": 8879,
      "Ġfobj": 8880,
      "Ġops": 8881,
      "Ġscheduler": 8882,
      "Ġ:]": 8883,
      "Ġdecoding": 8884,
      "Ġmandatory": 8885,
      "esian": 8886,
      "fied": 8887,
      "Ġconsecutive": 8888,
      "external": 8889,
      "ĠPadding": 8890,
      "Ġmechanism": 8891,
      "endants": 8892,
      "Ġ[('": 8893,
      "ĠDet": 8894,
      "Ġfunctionality": 8895,
      "ĠBut": 8896,
      "Ġquick": 8897,
      "Ġfake": 8898,
      "registration": 8899,
      "runs": 8900,
      "transpose": 8901,
      "TIVE": 8902,
      "matched": 8903,
      "Ġlocally": 8904,
      "issue": 8905,
      "Ġshapely": 8906,
      "Ġcombo": 8907,
      "viding": 8908,
      "ĠUpper": 8909,
      "struction": 8910,
      "Ġvisited": 8911,
      "Ġhowever": 8912,
      "Ġmanip": 8913,
      "Registry": 8914,
      "ĠConfigures": 8915,
      "Ġfactors": 8916,
      "ĠRuns": 8917,
      "Ġrendering": 8918,
      "ĠWorkflow": 8919,
      "Ġplayer": 8920,
      "ContentType": 8921,
      "Trimesh": 8922,
      "ĠSyntaxError": 8923,
      "EmptyValueError": 8924,
      "ographic": 8925,
      "CLASS": 8926,
      "Assign": 8927,
      "OURCE": 8928,
      "avelength": 8929,
      "'})": 8930,
      "76": 8931,
      "Max": 8932,
      "Num": 8933,
      "Slot": 8934,
      "Such": 8935,
      "await": 8936,
      "bum": 8937,
      "dup": 8938,
      "gamma": 8939,
      "nl": 8940,
      "runtime": 8941,
      "tp": 8942,
      "secure": 8943,
      "Ġir": 8944,
      "Ġcv": 8945,
      "Ġcatch": 8946,
      "otes": 8947,
      "rive": 8948,
      "Ġseg": 8949,
      "ĠPY": 8950,
      "endro": 8951,
      "ĠCur": 8952,
      "('>": 8953,
      "usr": 8954,
      ":`\\": 8955,
      "Ġpaired": 8956,
      "photo": 8957,
      "readlines": 8958,
      "Ġ{}:": 8959,
      "mino": 8960,
      "ospy": 8961,
      "tesIO": 8962,
      "RENT": 8963,
      "clients": 8964,
      "queues": 8965,
      "Copy": 8966,
      "Ġdependent": 8967,
      "ĠWhere": 8968,
      "ĠLookup": 8969,
      "istrations": 8970,
      "Ġdistributed": 8971,
      "Ġhosts": 8972,
      "capt": 8973,
      "Ġclosure": 8974,
      "Ġstopped": 8975,
      "ĠResource": 8976,
      "google": 8977,
      "ĠAssert": 8978,
      "ĠPermission": 8979,
      "hexdigest": 8980,
      "STRING": 8981,
      "afka": 8982,
      "separator": 8983,
      "configs": 8984,
      "'^": 8985,
      "26": 8986,
      "Min": 8987,
      "branches": 8988,
      "eper": 8989,
      "increment": 8990,
      "Ġaux": 8991,
      "Ġinf": 8992,
      "Ġmenu": 8993,
      "()).": 8994,
      "ĠIAPWS": 8995,
      "Ġhl": 8996,
      "Ġhop": 8997,
      "Ġdistrict": 8998,
      "Ġmeshes": 8999,
      "Ġ14": 9000,
      "Ġarrow": 9001,
      "Ġ{%": 9002,
      "attempt": 9003,
      "(\"'": 9004,
      "focus": 9005,
      "ĠMakes": 9006,
      "ĠGrid": 9007,
      "tia": 9008,
      "modify": 9009,
      "Ġattrib": 9010,
      "ĠHost": 9011,
      "Ġleaf": 9012,
      "ĠRecord": 9013,
      "ĠRelease": 9014,
      "Ġvalidity": 9015,
      "ĠDeletes": 9016,
      "ĠProperties": 9017,
      "Ġactiv": 9018,
      "plots": 9019,
      "boundary": 9020,
      "Ġbuilding": 9021,
      "Ġresolves": 9022,
      "masked": 9023,
      "Ġ\"\",": 9024,
      ">`_": 9025,
      "Ġauthenticate": 9026,
      "saved": 9027,
      "Ġcapacity": 9028,
      "similar": 9029,
      "ĠIterate": 9030,
      "Ġpotentially": 9031,
      "KeyboardMarkup": 9032,
      "ordinate": 9033,
      "Ġcylinder": 9034,
      "Binary": 9035,
      "Plot": 9036,
      "gradient": 9037,
      "kill": 9038,
      "nom": 9039,
      "ourn": 9040,
      "scipy": 9041,
      "tls": 9042,
      "vor": 9043,
      "wildcard": 9044,
      "ym": 9045,
      "Ġtell": 9046,
      "infile": 9047,
      "onds": 9048,
      "ertificate": 9049,
      "oral": 9050,
      "Ġ=>": 9051,
      "Ġrestri": 9052,
      "anchor": 9053,
      "Ġnominal": 9054,
      "):**": 9055,
      "Ġmig": 9056,
      "iden": 9057,
      "cha": 9058,
      "Ġcovariance": 9059,
      "ĠAx": 9060,
      "ends": 9061,
      "Ġrxn": 9062,
      "attempts": 9063,
      "anging": 9064,
      "Ġareas": 9065,
      "Ġ==================": 9066,
      "ĠLimit": 9067,
      "Ins": 9068,
      "working": 9069,
      "Real": 9070,
      "quiet": 9071,
      "Ġregistration": 9072,
      "curr": 9073,
      "Ġplus": 9074,
      "Ġtrafo": 9075,
      "Ġservers": 9076,
      "Ġtrip": 9077,
      "DEBUG": 9078,
      "Ġcharge": 9079,
      "Ġroots": 9080,
      "Ġplots": 9081,
      "Ġ1024": 9082,
      "normalized": 9083,
      "Component": 9084,
      "ĠColumn": 9085,
      "Ġwebhook": 9086,
      "Media": 9087,
      "Perform": 9088,
      "alleles": 9089,
      "assignment": 9090,
      "Ġcancelled": 9091,
      "Memory": 9092,
      "Ġoverridden": 9093,
      "(\"\"": 9094,
      "BACK": 9095,
      "RU": 9096,
      "VA": 9097,
      "VR": 9098,
      "bc": 9099,
      "mtime": 9100,
      "nme": 9101,
      "simple": 9102,
      "ylab": 9103,
      "Ġut": 9104,
      "heap": 9105,
      "Ġill": 9106,
      "arc": 9107,
      "Ġepoch": 9108,
      "liance": 9109,
      "Ġdew": 9110,
      "Ġannouncement": 9111,
      "agger": 9112,
      "rig": 9113,
      "lapping": 9114,
      "Ġhold": 9115,
      "Ġhref": 9116,
      "Ġld": 9117,
      "ĠPmf": 9118,
      "ĠCho": 9119,
      "ĠReturned": 9120,
      "Ġrg": 9121,
      "fox": 9122,
      "imation": 9123,
      "Ġtimeseries": 9124,
      "Ġjars": 9125,
      "train": 9126,
      "sential": 9127,
      "Ġmatrices": 9128,
      "logic": 9129,
      "posix": 9130,
      "Ġitertools": 9131,
      "filing": 9132,
      "Ġfinding": 9133,
      "Ġvisit": 9134,
      "168": 9135,
      "destroy": 9136,
      "conflict": 9137,
      "rfc": 9138,
      "Processing": 9139,
      "Ġoptimizer": 9140,
      "Ġblank": 9141,
      "Ġcircular": 9142,
      "retrieve": 9143,
      "Ġconvex": 9144,
      "alogs": 9145,
      ")-": 9146,
      "37": 9147,
      "EVE": 9148,
      "MV": 9149,
      "Po": 9150,
      "Total": 9151,
      "Zip": 9152,
      "dom": 9153,
      "friendly": 9154,
      "gent": 9155,
      "hot": 9156,
      "nemon": 9157,
      "sn": 9158,
      "{'": 9159,
      "deprecated": 9160,
      "Ġcarto": 9161,
      "Ġreview": 9162,
      "Ġreduced": 9163,
      "uris": 9164,
      "Ġelapsed": 9165,
      "ssue": 9166,
      "cost": 9167,
      "Ġsecure": 9168,
      "updates": 9169,
      "ĠCustom": 9170,
      "Ġlost": 9171,
      "Ġdatastore": 9172,
      "ĠFuture": 9173,
      "Ġcontract": 9174,
      "Ġrti": 9175,
      "(\"--": 9176,
      "apps": 9177,
      "prepare": 9178,
      "ĠMem": 9179,
      "Ġroutes": 9180,
      "pline": 9181,
      "Ġ/{": 9182,
      "Ġrecording": 9183,
      "Ġversionchanged": 9184,
      "funcs": 9185,
      "ĠXYZ": 9186,
      "ĠYAML": 9187,
      "mtree": 9188,
      "ocus": 9189,
      "Ġvars": 9190,
      "COMP": 9191,
      "aneous": 9192,
      "Ġbytearray": 9193,
      "Ġpopulate": 9194,
      "Ġdistributions": 9195,
      "Ġroutemap": 9196,
      "Ġexcludes": 9197,
      "Ġbroken": 9198,
      "nonzero": 9199,
      "Ġpairwise": 9200,
      "Alchemy": 9201,
      "Ġinterpreted": 9202,
      "Ġtiles": 9203,
      "clusion": 9204,
      "Ġcapabilities": 9205,
      "}{\\": 9206,
      "Ġcoefficient": 9207,
      "Ġobtained": 9208,
      "BASE": 9209,
      "ĠPositional": 9210,
      "PhoneNumber": 9211,
      "ivariate": 9212,
      "'m": 9213,
      "42": 9214,
      "BS": 9215,
      "Bar": 9216,
      "Link": 9217,
      "Qt": 9218,
      "carto": 9219,
      "dos": 9220,
      "fed": 9221,
      "href": 9222,
      "margin": 9223,
      "mpeg": 9224,
      "rees": 9225,
      "stick": 9226,
      "aro": 9227,
      "design": 9228,
      "Ġct": 9229,
      "lest": 9230,
      "Ġpst": 9231,
      "Ġsynchronous": 9232,
      "Ġscheduling": 9233,
      "Ġws": 9234,
      "Ġmp": 9235,
      "rime": 9236,
      "ĠSK": 9237,
      "ĠClear": 9238,
      "conns": 9239,
      "Ġrc": 9240,
      "ivable": 9241,
      "Ġunexpected": 9242,
      "ĠMy": 9243,
      "Ġnumerical": 9244,
      "gged": 9245,
      "readable": 9246,
      "Ġcompound": 9247,
      "Ġcomputes": 9248,
      "Ġcomposite": 9249,
      "Ġsubsequent": 9250,
      "Ġlead": 9251,
      "argparse": 9252,
      "pix": 9253,
      "Ġprimer": 9254,
      "Union": 9255,
      "EventObject": 9256,
      "ĠLoop": 9257,
      "Ġsystems": 9258,
      "Ġlikelihood": 9259,
      "Ġretain": 9260,
      "visit": 9261,
      "AND": 9262,
      "makeApi": 9263,
      "tests": 9264,
      "ĠZero": 9265,
      "TIMEOUT": 9266,
      "TASK": 9267,
      "bindings": 9268,
      "Ġbindings": 9269,
      "Ġalternate": 9270,
      "Ġasynchronously": 9271,
      "glyphs": 9272,
      "ĠMean": 9273,
      "ENTRY": 9274,
      "chemas": 9275,
      "Ġldap": 9276,
      "makeApiCall": 9277,
      "CATION": 9278,
      "Red": 9279,
      "jwt": 9280,
      "watch": 9281,
      "Ġtries": 9282,
      "inline": 9283,
      "reindex": 9284,
      "star": 9285,
      "arrow": 9286,
[...]
